unsigned char g_model[] = {
  0x1c, 0x00, 0x00, 0x00, 0x54, 0x46, 0x4c, 0x33, 0x14, 0x00, 0x20, 0x00,
  0x1c, 0x00, 0x18, 0x00, 0x14, 0x00, 0x10, 0x00, 0x0c, 0x00, 0x00, 0x00,
  0x08, 0x00, 0x04, 0x00, 0x14, 0x00, 0x00, 0x00, 0x1c, 0x00, 0x00, 0x00,
  0x8c, 0x00, 0x00, 0x00, 0xe4, 0x00, 0x00, 0x00, 0x7c, 0x17, 0x00, 0x00,
  0x8c, 0x17, 0x00, 0x00, 0xd0, 0x2d, 0x00, 0x00, 0x03, 0x00, 0x00, 0x00,
  0x01, 0x00, 0x00, 0x00, 0x10, 0x00, 0x00, 0x00, 0x00, 0x00, 0x0a, 0x00,
  0x10, 0x00, 0x0c, 0x00, 0x08, 0x00, 0x04, 0x00, 0x0a, 0x00, 0x00, 0x00,
  0x0c, 0x00, 0x00, 0x00, 0x1c, 0x00, 0x00, 0x00, 0x38, 0x00, 0x00, 0x00,
  0x0f, 0x00, 0x00, 0x00, 0x73, 0x65, 0x72, 0x76, 0x69, 0x6e, 0x67, 0x5f,
  0x64, 0x65, 0x66, 0x61, 0x75, 0x6c, 0x74, 0x00, 0x01, 0x00, 0x00, 0x00,
  0x04, 0x00, 0x00, 0x00, 0x9c, 0xff, 0xff, 0xff, 0x15, 0x00, 0x00, 0x00,
  0x04, 0x00, 0x00, 0x00, 0x07, 0x00, 0x00, 0x00, 0x64, 0x65, 0x6e, 0x73,
  0x65, 0x5f, 0x31, 0x00, 0x01, 0x00, 0x00, 0x00, 0x04, 0x00, 0x00, 0x00,
  0x5e, 0xe8, 0xff, 0xff, 0x04, 0x00, 0x00, 0x00, 0x07, 0x00, 0x00, 0x00,
  0x69, 0x6e, 0x70, 0x75, 0x74, 0x5f, 0x31, 0x00, 0x02, 0x00, 0x00, 0x00,
  0x34, 0x00, 0x00, 0x00, 0x04, 0x00, 0x00, 0x00, 0xdc, 0xff, 0xff, 0xff,
  0x18, 0x00, 0x00, 0x00, 0x04, 0x00, 0x00, 0x00, 0x13, 0x00, 0x00, 0x00,
  0x43, 0x4f, 0x4e, 0x56, 0x45, 0x52, 0x53, 0x49, 0x4f, 0x4e, 0x5f, 0x4d,
  0x45, 0x54, 0x41, 0x44, 0x41, 0x54, 0x41, 0x00, 0x08, 0x00, 0x0c, 0x00,
  0x08, 0x00, 0x04, 0x00, 0x08, 0x00, 0x00, 0x00, 0x17, 0x00, 0x00, 0x00,
  0x04, 0x00, 0x00, 0x00, 0x13, 0x00, 0x00, 0x00, 0x6d, 0x69, 0x6e, 0x5f,
  0x72, 0x75, 0x6e, 0x74, 0x69, 0x6d, 0x65, 0x5f, 0x76, 0x65, 0x72, 0x73,
  0x69, 0x6f, 0x6e, 0x00, 0x19, 0x00, 0x00, 0x00, 0x94, 0x16, 0x00, 0x00,
  0x8c, 0x16, 0x00, 0x00, 0x74, 0x16, 0x00, 0x00, 0x5c, 0x16, 0x00, 0x00,
  0x2c, 0x16, 0x00, 0x00, 0xdc, 0x15, 0x00, 0x00, 0x4c, 0x14, 0x00, 0x00,
  0xdc, 0x13, 0x00, 0x00, 0x4c, 0x06, 0x00, 0x00, 0xfc, 0x05, 0x00, 0x00,
  0x6c, 0x01, 0x00, 0x00, 0x3c, 0x01, 0x00, 0x00, 0xe4, 0x00, 0x00, 0x00,
  0xdc, 0x00, 0x00, 0x00, 0xd4, 0x00, 0x00, 0x00, 0xcc, 0x00, 0x00, 0x00,
  0xc4, 0x00, 0x00, 0x00, 0xbc, 0x00, 0x00, 0x00, 0xb4, 0x00, 0x00, 0x00,
  0xac, 0x00, 0x00, 0x00, 0xa4, 0x00, 0x00, 0x00, 0x9c, 0x00, 0x00, 0x00,
  0x94, 0x00, 0x00, 0x00, 0x74, 0x00, 0x00, 0x00, 0x04, 0x00, 0x00, 0x00,
  0x36, 0xe9, 0xff, 0xff, 0x04, 0x00, 0x00, 0x00, 0x60, 0x00, 0x00, 0x00,
  0x0c, 0x00, 0x00, 0x00, 0x08, 0x00, 0x0e, 0x00, 0x08, 0x00, 0x04, 0x00,
  0x08, 0x00, 0x00, 0x00, 0x10, 0x00, 0x00, 0x00, 0x28, 0x00, 0x00, 0x00,
  0x00, 0x00, 0x06, 0x00, 0x08, 0x00, 0x04, 0x00, 0x06, 0x00, 0x00, 0x00,
  0x04, 0x00, 0x00, 0x00, 0x01, 0x00, 0x00, 0x00, 0xeb, 0x03, 0x00, 0x00,
  0x0c, 0x00, 0x18, 0x00, 0x14, 0x00, 0x10, 0x00, 0x0c, 0x00, 0x04, 0x00,
  0x0c, 0x00, 0x00, 0x00, 0xce, 0x77, 0x12, 0x37, 0xbf, 0xe9, 0x96, 0x88,
  0x01, 0x00, 0x00, 0x00, 0x02, 0x00, 0x00, 0x00, 0x04, 0x00, 0x00, 0x00,
  0x06, 0x00, 0x00, 0x00, 0x32, 0x2e, 0x32, 0x31, 0x2e, 0x30, 0x00, 0x00,
  0xa2, 0xe9, 0xff, 0xff, 0x04, 0x00, 0x00, 0x00, 0x10, 0x00, 0x00, 0x00,
  0x31, 0x2e, 0x31, 0x34, 0x2e, 0x30, 0x00, 0x00, 0x00, 0x00, 0x00, 0x00,
  0x00, 0x00, 0x00, 0x00, 0xf4, 0xd4, 0xff, 0xff, 0xf8, 0xd4, 0xff, 0xff,
  0xfc, 0xd4, 0xff, 0xff, 0x00, 0xd5, 0xff, 0xff, 0x04, 0xd5, 0xff, 0xff,
  0x08, 0xd5, 0xff, 0xff, 0x0c, 0xd5, 0xff, 0xff, 0x10, 0xd5, 0xff, 0xff,
  0x14, 0xd5, 0xff, 0xff, 0x18, 0xd5, 0xff, 0xff, 0xe6, 0xe9, 0xff, 0xff,
  0x04, 0x00, 0x00, 0x00, 0x48, 0x00, 0x00, 0x00, 0x1a, 0xdb, 0x81, 0x65,
  0x02, 0x96, 0x1e, 0x45, 0x26, 0x6a, 0x11, 0xfc, 0xf7, 0x16, 0x46, 0x0f,
  0x33, 0x7f, 0x4c, 0x82, 0x48, 0x36, 0x2b, 0x86, 0x81, 0x18, 0x67, 0x04,
  0x3e, 0x35, 0x81, 0xc7, 0xf2, 0xa9, 0xde, 0x62, 0x7f, 0xf5, 0xc3, 0xcc,
  0x12, 0x1c, 0xd8, 0xfb, 0xfb, 0x30, 0xca, 0x21, 0x5c, 0x81, 0xb2, 0x20,
  0x59, 0xdb, 0x8a, 0xa3, 0x86, 0x3f, 0x7f, 0x40, 0x47, 0x07, 0xd4, 0x9a,
  0x97, 0xd2, 0xe8, 0xe1, 0x2d, 0xcb, 0x81, 0x15, 0x3a, 0xea, 0xff, 0xff,
  0x04, 0x00, 0x00, 0x00, 0x20, 0x00, 0x00, 0x00, 0x26, 0xfd, 0xff, 0xff,
  0x69, 0xa8, 0xff, 0xff, 0xee, 0x01, 0x00, 0x00, 0x08, 0x19, 0x00, 0x00,
  0xd0, 0xe1, 0xff, 0xff, 0x3f, 0xfb, 0xff, 0xff, 0xfb, 0x00, 0x00, 0x00,
  0xfb, 0xee, 0xff, 0xff, 0x66, 0xea, 0xff, 0xff, 0x04, 0x00, 0x00, 0x00,
  0x80, 0x04, 0x00, 0x00, 0xfa, 0x07, 0xef, 0xf2, 0x09, 0x3a, 0xc3, 0x0a,
  0x04, 0x0c, 0xfd, 0x1f, 0x0d, 0x44, 0xb0, 0x0f, 0x21, 0xf4, 0xf7, 0x22,
  0x07, 0x59, 0xa0, 0xfa, 0x60, 0xe6, 0xea, 0xeb, 0x01, 0x7f, 0x1a, 0xf3,
  0x12, 0xe8, 0xea, 0x39, 0x0d, 0x36, 0xde, 0x09, 0x3a, 0x03, 0xe1, 0x21,
  0xf4, 0x60, 0xbb, 0xfe, 0x7f, 0x0f, 0xf7, 0xc0, 0x28, 0x79, 0x6a, 0x10,
  0x30, 0x0b, 0xe9, 0x16, 0xff, 0x1e, 0x1c, 0xfc, 0x63, 0x0b, 0x15, 0x2b,
  0x07, 0x7b, 0x02, 0x02, 0x22, 0xc4, 0x1f, 0x14, 0xe2, 0x35, 0x5a, 0x09,
  0x16, 0xd5, 0x41, 0x0a, 0xf8, 0x4e, 0x7b, 0x06, 0x04, 0xd2, 0x3c, 0x42,
  0xf0, 0x40, 0x70, 0xf8, 0x33, 0xd8, 0xfd, 0x15, 0xac, 0x10, 0x26, 0xe6,
  0x3d, 0xd0, 0x43, 0x32, 0x2a, 0x40, 0x75, 0xef, 0xe8, 0x81, 0x50, 0x3c,
  0x4e, 0x1a, 0x29, 0x0d, 0x24, 0xe0, 0xf4, 0x0d, 0xe1, 0x34, 0x65, 0x18,
  0x50, 0xd6, 0xff, 0x15, 0x01, 0x43, 0x78, 0x18, 0x1f, 0xad, 0x18, 0x43,
  0xfc, 0xda, 0x58, 0xfb, 0xec, 0xdf, 0xe8, 0x16, 0xda, 0xfe, 0xa2, 0xf7,
  0xfd, 0xf7, 0x0a, 0x19, 0x04, 0x17, 0xe6, 0xf8, 0x0c, 0x02, 0x16, 0x08,
  0x17, 0x14, 0x10, 0x0e, 0x0f, 0xe3, 0xf4, 0x0d, 0xe2, 0x06, 0xa7, 0x09,
  0xdd, 0xf4, 0x13, 0x0c, 0x0a, 0x01, 0xd9, 0x01, 0x11, 0xf7, 0x0e, 0x02,
  0x5c, 0x17, 0x20, 0x01, 0xd8, 0xe1, 0xe7, 0x14, 0xdc, 0xcd, 0xdd, 0x0e,
  0xe7, 0x0e, 0x24, 0x27, 0x00, 0x19, 0xe3, 0x0b, 0x03, 0x07, 0x2e, 0x10,
  0x7f, 0x1c, 0x06, 0x07, 0xf3, 0x08, 0xfe, 0xf2, 0x14, 0xec, 0x05, 0xf5,
  0x01, 0x0a, 0xb7, 0xd2, 0x14, 0xf8, 0x08, 0x0b, 0xec, 0xdf, 0xbf, 0xf0,
  0x17, 0xce, 0xbd, 0x08, 0x13, 0x03, 0x50, 0x02, 0x05, 0x2a, 0xf7, 0xf7,
  0xfa, 0x12, 0xaf, 0xb3, 0x0e, 0xf1, 0xdc, 0x03, 0xfe, 0xec, 0x81, 0xed,
  0xae, 0xab, 0xac, 0xf7, 0x1b, 0x13, 0x3c, 0xe8, 0x70, 0x2d, 0x32, 0x0d,
  0x0f, 0xf8, 0x26, 0xc9, 0x14, 0x14, 0x2a, 0xfe, 0x19, 0xff, 0xd1, 0xef,
  0x15, 0x09, 0x01, 0xf6, 0x07, 0x08, 0x69, 0x0d, 0x38, 0x65, 0x3e, 0x12,
  0xdc, 0xd3, 0xda, 0xf4, 0x0e, 0xda, 0xea, 0x0d, 0x12, 0x05, 0xf8, 0xd9,
  0x10, 0xc2, 0xbc, 0x11, 0x08, 0xed, 0xfe, 0xfe, 0x2e, 0x1d, 0x0f, 0xf1,
  0x0f, 0x0b, 0x30, 0x15, 0x34, 0x2f, 0xe7, 0x05, 0xd8, 0xf3, 0xd3, 0xd7,
  0xaa, 0xfe, 0xde, 0xf8, 0xd6, 0xe5, 0xc0, 0xba, 0xd8, 0xe5, 0xe8, 0xf3,
  0x08, 0xf8, 0x4f, 0x07, 0x28, 0xdd, 0xf4, 0xf7, 0x31, 0x17, 0x7f, 0x0e,
  0x45, 0x3e, 0x3b, 0xfb, 0xef, 0x15, 0x04, 0xd2, 0xfe, 0x14, 0xe5, 0xff,
  0xd2, 0x20, 0x07, 0xf3, 0x01, 0x14, 0xdf, 0xfb, 0xc6, 0x0b, 0x16, 0x0f,
  0x10, 0x10, 0xd3, 0xf4, 0xef, 0x1e, 0xff, 0xd7, 0xf8, 0x07, 0x81, 0x07,
  0x02, 0x15, 0x02, 0x03, 0xf7, 0xfc, 0xa2, 0xfc, 0xf6, 0x00, 0x17, 0xf9,
  0x1a, 0x08, 0xb2, 0x15, 0xdb, 0x02, 0xee, 0xd3, 0xff, 0x15, 0x91, 0xf8,
  0xe1, 0xfa, 0x04, 0xda, 0xf1, 0xff, 0x9a, 0xf4, 0xdc, 0x1e, 0x10, 0xc2,
  0x0b, 0x10, 0xad, 0xf7, 0xc4, 0xf5, 0xf1, 0xe8, 0x0b, 0xeb, 0xd6, 0x05,
  0x2c, 0x11, 0xf1, 0xfc, 0x06, 0x2f, 0x10, 0x06, 0x08, 0xde, 0x0f, 0x20,
  0xfe, 0x09, 0x0c, 0x0b, 0x0c, 0x0b, 0xfe, 0xf7, 0x07, 0x96, 0x7a, 0xf6,
  0x4a, 0x02, 0x05, 0xf1, 0x01, 0x26, 0x52, 0xfd, 0x48, 0xdb, 0x32, 0xf0,
  0xea, 0x25, 0x7f, 0x0c, 0xbb, 0x02, 0xe2, 0xd7, 0xf5, 0xaa, 0xfe, 0x06,
  0x22, 0x1e, 0x00, 0xcf, 0xf6, 0x0a, 0x20, 0xef, 0x0f, 0x00, 0x25, 0xfb,
  0xf8, 0x10, 0x52, 0xef, 0x28, 0xf7, 0x7f, 0xe9, 0x4c, 0x60, 0x3d, 0xf6,
  0x0b, 0xc2, 0xa1, 0x00, 0x2a, 0xf1, 0x11, 0x0c, 0xed, 0xa6, 0xa5, 0xed,
  0xcf, 0xab, 0xcb, 0xf3, 0x2d, 0xe5, 0x48, 0xbb, 0x69, 0x1e, 0x3d, 0x18,
  0x19, 0x17, 0x1a, 0xd4, 0xdf, 0x17, 0x41, 0x0b, 0x2a, 0xe0, 0xfc, 0xef,
  0x2c, 0x12, 0x28, 0x0d, 0x9d, 0xcd, 0xee, 0xc0, 0xd1, 0xba, 0xc6, 0x1d,
  0x1a, 0xef, 0x4d, 0xc4, 0xf8, 0xda, 0x2e, 0x10, 0xfd, 0x04, 0x44, 0xe3,
  0xdd, 0x0e, 0x5f, 0xf0, 0xdf, 0xee, 0xf7, 0xc1, 0x24, 0x18, 0xf7, 0x03,
  0x03, 0xee, 0xb8, 0x98, 0xf8, 0xe0, 0x04, 0x17, 0x18, 0x9d, 0x81, 0xe2,
  0xf5, 0xb2, 0xee, 0x02, 0x0d, 0xfb, 0x4d, 0xd5, 0x16, 0x3a, 0x18, 0xe9,
  0x16, 0x13, 0xea, 0xad, 0xdc, 0xdd, 0x0d, 0x05, 0xea, 0xd4, 0x87, 0xdb,
  0xdf, 0xbd, 0x05, 0xe9, 0x20, 0x14, 0x50, 0xb9, 0x33, 0x27, 0x09, 0x0a,
  0x2e, 0x08, 0x5c, 0xbf, 0x36, 0x28, 0x1f, 0x01, 0xf8, 0xe5, 0xe3, 0xe6,
  0x21, 0x22, 0x25, 0x0d, 0x42, 0x08, 0x0d, 0x09, 0x3b, 0x7f, 0x0e, 0x0e,
  0x1f, 0x0d, 0x33, 0x1f, 0x24, 0x4a, 0x05, 0x08, 0x52, 0x11, 0x25, 0xe6,
  0x45, 0x75, 0x17, 0x09, 0x4e, 0xf4, 0xfa, 0x0f, 0x3d, 0x5c, 0x08, 0xf3,
  0xbc, 0x0a, 0x1d, 0x3c, 0x3e, 0xf1, 0xd2, 0xf7, 0x1c, 0x1a, 0x27, 0x01,
  0x2e, 0x2f, 0xe8, 0x02, 0x43, 0xe0, 0x1c, 0xfe, 0x2e, 0x57, 0xef, 0xf6,
  0xa9, 0xee, 0x1e, 0x27, 0x20, 0xed, 0xa6, 0x0d, 0x26, 0xf6, 0x1a, 0x16,
  0x2d, 0x3d, 0xde, 0xf4, 0xeb, 0xf6, 0x0e, 0x3f, 0x1a, 0x3e, 0xd7, 0x10,
  0x13, 0x20, 0x2b, 0x0e, 0x17, 0x3d, 0x23, 0x02, 0x0e, 0x2d, 0x09, 0x03,
  0x39, 0xf8, 0x2a, 0x10, 0x67, 0xef, 0x15, 0x50, 0x1d, 0x28, 0x20, 0xeb,
  0x07, 0x1e, 0x14, 0x3c, 0x45, 0x1c, 0x08, 0xf6, 0xcf, 0x20, 0x48, 0x1d,
  0x5d, 0x0d, 0x11, 0x0f, 0x2a, 0x99, 0xda, 0x60, 0xdf, 0xcd, 0x7f, 0x00,
  0xf5, 0xe4, 0x0d, 0x44, 0x1a, 0x04, 0x70, 0xf6, 0xcf, 0xf8, 0x21, 0x21,
  0x7d, 0xb7, 0xfc, 0x04, 0x1d, 0xf2, 0x7f, 0x1b, 0xef, 0x7e, 0x02, 0x02,
  0x15, 0x16, 0x27, 0xec, 0xff, 0x0e, 0xf5, 0x12, 0x0d, 0x01, 0xe7, 0xd0,
  0x25, 0x0a, 0x9f, 0xfa, 0xfd, 0x12, 0x16, 0x00, 0x27, 0xbf, 0x48, 0xe5,
  0x32, 0x27, 0x7e, 0xdd, 0x75, 0x29, 0x3e, 0x1a, 0x1b, 0xf9, 0x33, 0xb6,
  0x4a, 0xff, 0x63, 0x13, 0xc5, 0xd5, 0xfc, 0xc9, 0x9e, 0xa3, 0x25, 0x16,
  0xf9, 0xe0, 0xeb, 0xd7, 0x2a, 0xe0, 0x08, 0xe5, 0xb8, 0xea, 0xe3, 0x9b,
  0x56, 0xc6, 0xf7, 0xfb, 0xda, 0xf1, 0xcb, 0xa0, 0x0b, 0xeb, 0xe1, 0xfe,
  0x12, 0xe0, 0x81, 0x83, 0xe2, 0xda, 0x08, 0x01, 0x0c, 0x84, 0x8e, 0xf2,
  0xee, 0xc9, 0xc1, 0xfe, 0xff, 0x09, 0x59, 0xcd, 0xfd, 0x23, 0xf7, 0x11,
  0x05, 0xff, 0xcf, 0x9b, 0xea, 0xce, 0x05, 0xf8, 0x14, 0xe2, 0xa8, 0xe1,
  0xdc, 0xb3, 0xe5, 0xf8, 0x19, 0x0f, 0x75, 0xc3, 0x4e, 0x22, 0x25, 0x0a,
  0x16, 0x13, 0x4c, 0xab, 0x31, 0x29, 0x23, 0x15, 0xfd, 0xe7, 0xc8, 0xfe,
  0x06, 0x29, 0x19, 0x14, 0xb6, 0xdf, 0x07, 0xbe, 0xb8, 0x84, 0xd0, 0xfa,
  0x0f, 0x0d, 0xe7, 0xaf, 0x94, 0xed, 0x0b, 0x0d, 0xc1, 0xea, 0x21, 0xd6,
  0xdf, 0xc8, 0xac, 0xfd, 0xad, 0xf9, 0xdf, 0xa6, 0x2f, 0x81, 0xc7, 0x0a,
  0x24, 0x1c, 0xde, 0x94, 0x2a, 0x22, 0x13, 0x01, 0xba, 0xe0, 0x1c, 0xfc,
  0xf6, 0xfd, 0xab, 0x13, 0xce, 0x19, 0x00, 0x98, 0xde, 0xb5, 0xa5, 0x19,
  0x42, 0x06, 0xf0, 0x9a, 0xfd, 0x16, 0x11, 0xea, 0x0b, 0xcf, 0xf5, 0x0a,
  0x25, 0x0b, 0xc4, 0x02, 0x00, 0xfb, 0xf9, 0x29, 0x0c, 0x3c, 0xc8, 0xf0,
  0x03, 0x24, 0x50, 0x15, 0x7e, 0x6c, 0xdc, 0x11, 0x0f, 0xfa, 0x24, 0xb8,
  0x59, 0x4d, 0x06, 0x03, 0x40, 0x11, 0x22, 0x06, 0x1d, 0x32, 0x02, 0xf3,
  0xf7, 0x1b, 0x3e, 0x07, 0x3d, 0x1b, 0x05, 0xf6, 0x2a, 0x16, 0x35, 0xda,
  0x63, 0x46, 0xf5, 0xfe, 0xc4, 0xc1, 0x93, 0xf7, 0x85, 0x81, 0x47, 0x09,
  0xb7, 0xc8, 0x17, 0xbd, 0xec, 0xd8, 0xbe, 0x09, 0xef, 0xc9, 0x1a, 0xbd,
  0x7c, 0xf7, 0xe7, 0x01, 0x05, 0xea, 0xf8, 0x0b, 0x00, 0x08, 0x20, 0x0e,
  0xfd, 0xfd, 0xf0, 0xec, 0x52, 0xa1, 0xb9, 0x03, 0x0d, 0x19, 0xd7, 0xec,
  0xe7, 0xe7, 0x2a, 0x10, 0x21, 0x09, 0x73, 0x24, 0x7f, 0x39, 0xf6, 0x0b,
  0x1d, 0x01, 0x2a, 0xf0, 0x4d, 0x38, 0x05, 0xf0, 0xe5, 0xeb, 0xad, 0xe0,
  0x15, 0xd7, 0xc9, 0x03, 0xdb, 0xe8, 0xf0, 0xdf, 0x14, 0xc1, 0xd2, 0x05,
  0x0d, 0xf4, 0x3a, 0xfc, 0x68, 0x19, 0x1f, 0x05, 0x1d, 0x0f, 0x3a, 0xbd,
  0x4e, 0x2c, 0x29, 0xfe, 0xf2, 0xee, 0xff, 0xff, 0x04, 0x00, 0x00, 0x00,
  0x40, 0x00, 0x00, 0x00, 0xdf, 0xf9, 0xff, 0xff, 0xa6, 0xfe, 0xff, 0xff,
  0x0c, 0xff, 0xff, 0xff, 0x0e, 0xfb, 0xff, 0xff, 0x0f, 0xf8, 0xff, 0xff,
  0x12, 0x07, 0x00, 0x00, 0x00, 0xff, 0xff, 0xff, 0xfa, 0x06, 0x00, 0x00,
  0x5c, 0xfd, 0xff, 0xff, 0x01, 0xf6, 0xff, 0xff, 0xb3, 0xde, 0xff, 0xff,
  0x01, 0xec, 0xff, 0xff, 0xa6, 0x05, 0x00, 0x00, 0xc3, 0x28, 0x00, 0x00,
  0x0b, 0xd6, 0xff, 0xff, 0xed, 0xf9, 0xff, 0xff, 0x3e, 0xef, 0xff, 0xff,
  0x04, 0x00, 0x00, 0x00, 0x80, 0x0d, 0x00, 0x00, 0xce, 0x16, 0x04, 0xd7,
  0x04, 0xc5, 0x12, 0xe7, 0x33, 0xc5, 0xe4, 0x81, 0x1c, 0xf3, 0x0d, 0x19,
  0xe2, 0x07, 0xe3, 0x09, 0xf5, 0xc2, 0xfd, 0x07, 0x2b, 0xde, 0xc6, 0xbe,
  0x4b, 0x06, 0xd4, 0xf9, 0xd3, 0x1e, 0x01, 0xf8, 0x17, 0x96, 0x1c, 0x77,
  0x3b, 0xa6, 0xac, 0x05, 0x34, 0x08, 0x27, 0x0d, 0xe3, 0x1f, 0x2b, 0xf7,
  0x02, 0xca, 0x06, 0xf0, 0xf7, 0xf6, 0x51, 0xe3, 0x07, 0xe4, 0xd2, 0xf5,
  0xfb, 0x12, 0x01, 0x3c, 0x0d, 0xf3, 0x19, 0x11, 0x36, 0x10, 0x54, 0x20,
  0x4d, 0x1a, 0x25, 0x32, 0xbc, 0x12, 0xf6, 0x0e, 0x2b, 0xd5, 0x1a, 0x2e,
  0x3c, 0xe9, 0x46, 0x32, 0x4f, 0xf8, 0x26, 0x35, 0xe3, 0x22, 0x27, 0xfb,
  0xea, 0xc4, 0x18, 0xd6, 0xeb, 0xff, 0x45, 0x4e, 0xe2, 0xd7, 0x28, 0xc7,
  0x08, 0x11, 0x0d, 0x3c, 0xc4, 0xdf, 0xf8, 0xeb, 0x3d, 0x0c, 0x5b, 0x52,
  0x4f, 0xfd, 0x71, 0xe0, 0xc0, 0x11, 0x1b, 0xc6, 0xf1, 0xd9, 0xc2, 0xe6,
  0xf9, 0xdb, 0x38, 0x72, 0xe9, 0xd9, 0x5a, 0xf7, 0xf7, 0x11, 0x02, 0x1a,
  0x38, 0xee, 0xff, 0x11, 0x15, 0xf8, 0x0e, 0x1e, 0x25, 0xf3, 0x59, 0x24,
  0x07, 0xfe, 0x0c, 0x16, 0x36, 0xf0, 0xfd, 0x07, 0x26, 0x0a, 0x08, 0x1d,
  0x3b, 0xed, 0x44, 0x33, 0x0f, 0x07, 0x19, 0x0b, 0x1d, 0xf8, 0x10, 0x06,
  0x0e, 0x0c, 0x07, 0x09, 0x04, 0x0c, 0x3f, 0x0f, 0xfa, 0x07, 0x08, 0x18,
  0x17, 0xf1, 0x02, 0x13, 0x22, 0x08, 0xfa, 0x11, 0x2d, 0xe9, 0x52, 0x27,
  0xf9, 0x09, 0x0f, 0x09, 0x1f, 0x01, 0x05, 0x0d, 0x09, 0xff, 0x0b, 0x11,
  0x0c, 0xea, 0x5e, 0x0c, 0xfa, 0x03, 0x11, 0xf7, 0x17, 0xf1, 0x14, 0x11,
  0xfb, 0x10, 0xf1, 0xfe, 0xf5, 0xfe, 0x2e, 0x17, 0xf6, 0x07, 0x0a, 0x18,
  0x1e, 0xeb, 0xf6, 0x1f, 0x2d, 0xf6, 0x26, 0x41, 0x28, 0xe6, 0x7f, 0x16,
  0xf6, 0x02, 0x09, 0x1e, 0x22, 0xfc, 0xfd, 0x10, 0x1a, 0xfe, 0x28, 0x42,
  0x1b, 0xf3, 0x7c, 0x29, 0x00, 0x12, 0x15, 0xf5, 0x25, 0xf9, 0x14, 0x0e,
  0xfe, 0x0f, 0x09, 0x16, 0xf8, 0x10, 0x51, 0x13, 0x17, 0xfa, 0x00, 0xd8,
  0x02, 0x08, 0x0f, 0xde, 0xf9, 0x0e, 0x2d, 0xf7, 0xf9, 0x00, 0xf6, 0xe0,
  0x14, 0x03, 0x01, 0xe5, 0xe3, 0x14, 0x03, 0xec, 0xe5, 0x25, 0x49, 0x02,
  0x05, 0x02, 0xcf, 0xe0, 0x1f, 0x18, 0xf2, 0xe7, 0xec, 0x11, 0xf7, 0xed,
  0xf5, 0x21, 0x3a, 0xfa, 0x10, 0xf6, 0xeb, 0xe8, 0x1d, 0x06, 0x05, 0xdb,
  0xd1, 0xfc, 0x24, 0xd7, 0xd7, 0x27, 0x0c, 0xe4, 0xed, 0x0d, 0xb3, 0xd0,
  0x10, 0x0f, 0xff, 0xdb, 0xe2, 0xfc, 0xf7, 0xe6, 0xdd, 0x1b, 0x1b, 0xeb,
  0xdc, 0xed, 0xa0, 0xc9, 0x13, 0xff, 0x04, 0xf0, 0xc8, 0x11, 0x05, 0xe1,
  0xea, 0x15, 0x12, 0xf1, 0xfe, 0x09, 0xbe, 0xcb, 0x16, 0x0b, 0x0b, 0xed,
  0xf0, 0xfc, 0x3b, 0xe0, 0xd3, 0x18, 0xf3, 0xb1, 0xef, 0xf4, 0xaa, 0xf4,
  0x16, 0x09, 0x0c, 0xeb, 0xe7, 0xf5, 0x18, 0xf8, 0xe9, 0x1a, 0xff, 0xc0,
  0xe0, 0x00, 0x8c, 0xe9, 0x09, 0x11, 0x0c, 0xf3, 0xda, 0x04, 0xff, 0xd6,
  0xf4, 0x18, 0xf9, 0xd7, 0x12, 0xf2, 0x81, 0xc3, 0xd0, 0x01, 0x03, 0xee,
  0x08, 0xbc, 0x0c, 0xdf, 0x05, 0xc8, 0xbe, 0x81, 0x12, 0xe2, 0x31, 0x0a,
  0xde, 0x10, 0xf4, 0x10, 0xe3, 0xa3, 0xf8, 0x05, 0x2a, 0xc3, 0xbb, 0xce,
  0x37, 0x05, 0xe3, 0x0f, 0xc7, 0x1c, 0xee, 0xe0, 0xfa, 0x9e, 0x39, 0x4d,
  0x1e, 0x99, 0x9d, 0xc7, 0x2b, 0xf5, 0x45, 0xff, 0xd4, 0x1f, 0x14, 0xf4,
  0xfc, 0xe0, 0xea, 0xe4, 0xf6, 0xf3, 0x55, 0xe0, 0xee, 0x0d, 0x08, 0xfe,
  0xf2, 0x18, 0x0c, 0x22, 0x12, 0xee, 0x13, 0x11, 0x26, 0x08, 0x44, 0x0d,
  0x36, 0x0f, 0x13, 0x2d, 0xef, 0x03, 0xe2, 0xfe, 0x37, 0xdd, 0x11, 0x15,
  0x09, 0xed, 0x5b, 0x29, 0x23, 0x05, 0x35, 0x25, 0xf8, 0x09, 0x33, 0x19,
  0xc4, 0xd2, 0x02, 0xc0, 0x03, 0x1c, 0x2f, 0x52, 0xf2, 0xd1, 0x28, 0xcb,
  0x12, 0xfc, 0x0e, 0x30, 0xa6, 0xeb, 0x0f, 0xf5, 0x31, 0x24, 0x46, 0x63,
  0x39, 0x08, 0x6e, 0xbe, 0xdd, 0x0f, 0x00, 0x9a, 0xf1, 0xe3, 0xd6, 0xc9,
  0xbf, 0xff, 0x5c, 0x33, 0xc9, 0xd8, 0x42, 0xdf, 0x0a, 0x05, 0xf6, 0xd7,
  0x03, 0xe3, 0x1a, 0x16, 0x1d, 0x10, 0x44, 0x10, 0x12, 0x29, 0xda, 0xf2,
  0x08, 0x0b, 0xd3, 0xcf, 0x13, 0xfc, 0x06, 0x00, 0x23, 0x23, 0x56, 0x06,
  0x10, 0xf2, 0xac, 0x01, 0xf0, 0xff, 0xe0, 0x1f, 0x34, 0x06, 0x02, 0x0c,
  0x29, 0x03, 0x61, 0x11, 0x1b, 0x08, 0xae, 0x34, 0x16, 0xed, 0xfe, 0xde,
  0xd3, 0xf9, 0x3d, 0x16, 0x16, 0x06, 0xea, 0xee, 0xf6, 0x1d, 0xd3, 0xe0,
  0x06, 0xe2, 0xfa, 0xd3, 0xbc, 0xe4, 0x0d, 0xfb, 0x06, 0x12, 0x06, 0xe6,
  0xf7, 0xf0, 0xa7, 0xb2, 0x01, 0xe8, 0x04, 0x0e, 0xd3, 0xed, 0x06, 0x16,
  0x22, 0xfd, 0x20, 0x0c, 0x1f, 0x17, 0x81, 0xe0, 0x13, 0xe7, 0x03, 0xef,
  0xe2, 0xf9, 0x22, 0xf8, 0xf9, 0x18, 0xed, 0xc3, 0xe4, 0x0e, 0x81, 0xdf,
  0xf4, 0xde, 0xda, 0xdf, 0xd4, 0xf6, 0x23, 0xfd, 0x10, 0x0a, 0xea, 0xda,
  0xfc, 0x12, 0x98, 0xd4, 0x06, 0xde, 0x06, 0x07, 0xbf, 0x00, 0x25, 0x0f,
  0x24, 0x0a, 0x1d, 0x1c, 0x22, 0x1d, 0xc4, 0xc3, 0x00, 0x03, 0x0b, 0x22,
  0x37, 0xeb, 0x09, 0x1c, 0x28, 0xff, 0x0b, 0x29, 0x3f, 0xf9, 0x68, 0x2e,
  0x04, 0xe1, 0x09, 0x1b, 0x30, 0x01, 0xff, 0xf4, 0x1d, 0xfc, 0x0b, 0x1a,
  0x3b, 0xf3, 0x3a, 0x2c, 0x02, 0xe5, 0x06, 0x02, 0x1a, 0xf6, 0x12, 0xf2,
  0x06, 0x0a, 0x08, 0x03, 0x07, 0x07, 0x25, 0x16, 0xf2, 0x0b, 0x0a, 0x13,
  0x1e, 0xf2, 0x05, 0x11, 0x1c, 0x01, 0xff, 0x1a, 0x1a, 0xe3, 0x50, 0x12,
  0xfc, 0xf6, 0x02, 0x10, 0x21, 0xfe, 0x0a, 0x18, 0x0f, 0x02, 0x0f, 0x12,
  0x19, 0xe9, 0x54, 0x16, 0x00, 0xee, 0x0c, 0x05, 0x1d, 0xfd, 0x13, 0x10,
  0x0a, 0x04, 0xed, 0x0a, 0x06, 0xfb, 0x30, 0x0c, 0xe9, 0x0a, 0x01, 0x0d,
  0x15, 0xf3, 0xf0, 0x0c, 0x20, 0xfc, 0x24, 0x4a, 0x23, 0xe4, 0x7f, 0x22,
  0xfc, 0xfa, 0x04, 0x0b, 0x2b, 0xf6, 0xf2, 0x13, 0x00, 0x06, 0x28, 0x32,
  0x0d, 0xf4, 0x6e, 0x1b, 0x07, 0xf7, 0x0e, 0xfc, 0x22, 0xf9, 0x0f, 0x21,
  0x0a, 0x07, 0x0a, 0x10, 0x08, 0x00, 0x3f, 0x1c, 0xfe, 0xc5, 0x01, 0x21,
  0x15, 0x02, 0xea, 0xd9, 0x1c, 0xea, 0x07, 0xfa, 0x31, 0xfd, 0x11, 0x14,
  0xf9, 0xcc, 0xef, 0xf2, 0xdc, 0xf7, 0xf8, 0xd8, 0x01, 0xf0, 0xfa, 0xe4,
  0x07, 0x18, 0x2c, 0xe5, 0xe0, 0x19, 0x11, 0xfd, 0xf3, 0xec, 0xe4, 0x07,
  0x2d, 0xde, 0xe0, 0x20, 0x38, 0x17, 0xec, 0x04, 0x06, 0xda, 0xf9, 0x37,
  0x18, 0x06, 0x03, 0x16, 0x18, 0x04, 0xf5, 0x1d, 0x1c, 0x00, 0x54, 0x29,
  0xf9, 0xdf, 0xd5, 0x08, 0x0b, 0xf8, 0x07, 0x10, 0x14, 0xfb, 0xc5, 0x03,
  0x0f, 0x05, 0x29, 0x0d, 0xee, 0x03, 0x14, 0x0a, 0xf0, 0xf8, 0xfb, 0x0a,
  0x0b, 0xee, 0x01, 0x10, 0x11, 0x11, 0x32, 0xda, 0x08, 0xcb, 0xfd, 0x3d,
  0x1d, 0x0a, 0xf7, 0xef, 0x15, 0x00, 0x0a, 0x26, 0x2b, 0x09, 0x7f, 0x1d,
  0x09, 0xdb, 0xe0, 0x01, 0x3d, 0x00, 0xfb, 0x0e, 0x1f, 0xef, 0xf9, 0x05,
  0x22, 0x14, 0x4c, 0x13, 0xf4, 0x1d, 0x1f, 0x13, 0x2e, 0xfa, 0xe3, 0x23,
  0x4b, 0xe1, 0xff, 0x1a, 0x54, 0x07, 0x59, 0x18, 0xff, 0xdb, 0xfb, 0x44,
  0x14, 0x08, 0xf2, 0xb3, 0x0f, 0xf2, 0xf7, 0xfc, 0x24, 0xf4, 0xf3, 0x2a,
  0x0c, 0xd0, 0x0d, 0x0e, 0xe0, 0xff, 0xfb, 0xc4, 0xf9, 0xfc, 0xfa, 0xeb,
  0xee, 0x13, 0x17, 0x0a, 0xf7, 0xfd, 0x05, 0x36, 0xe2, 0xf5, 0xd9, 0xb9,
  0x1d, 0xe9, 0xe2, 0xe8, 0x1e, 0x0a, 0xcc, 0x1e, 0x04, 0xde, 0x0b, 0x28,
  0x34, 0xfb, 0xf3, 0xd8, 0x08, 0xf9, 0x0e, 0xf5, 0x16, 0xdf, 0x62, 0x30,
  0x04, 0xe5, 0x07, 0x18, 0x13, 0xfd, 0xfd, 0xe8, 0x03, 0x03, 0xec, 0xe8,
  0xfe, 0xfc, 0x1d, 0x13, 0xf9, 0x02, 0x0b, 0x29, 0x08, 0xf1, 0xf2, 0xe9,
  0x14, 0xe7, 0xef, 0xec, 0x2b, 0xf7, 0x03, 0x27, 0x13, 0xee, 0x1e, 0x2d,
  0x41, 0x13, 0x0a, 0x12, 0x13, 0x0a, 0x2f, 0x34, 0x2f, 0xe5, 0x7f, 0x4e,
  0x10, 0xef, 0xf7, 0x1f, 0x30, 0x06, 0x11, 0x0d, 0x15, 0x0e, 0x0a, 0x0e,
  0x1b, 0x01, 0x57, 0x38, 0x09, 0x15, 0x0c, 0x31, 0x18, 0xef, 0x04, 0x1f,
  0x24, 0x00, 0x14, 0x2a, 0x36, 0xf5, 0x63, 0x2f, 0xfe, 0xe5, 0x09, 0x13,
  0x39, 0xf7, 0x01, 0x0f, 0x28, 0xfd, 0x12, 0x0b, 0x36, 0xe2, 0x47, 0x2b,
  0xfc, 0xc5, 0xf6, 0x04, 0x01, 0xf9, 0x0c, 0xec, 0x11, 0x04, 0x14, 0xfa,
  0x08, 0x01, 0x23, 0x13, 0x03, 0x0a, 0x06, 0x19, 0x15, 0xf7, 0x19, 0x01,
  0x1f, 0xff, 0x01, 0x10, 0x22, 0xea, 0x2f, 0x14, 0xfc, 0xfd, 0x10, 0x06,
  0x1f, 0x01, 0x10, 0x0d, 0x0e, 0x04, 0x11, 0x19, 0x21, 0xe5, 0x4c, 0x11,
  0x01, 0xd3, 0xf5, 0x03, 0x0e, 0xfc, 0x0a, 0x0c, 0x11, 0x06, 0xf1, 0x09,
  0x09, 0x05, 0x38, 0x0b, 0x08, 0xfb, 0x13, 0x01, 0x16, 0xfa, 0x0a, 0x11,
  0x03, 0xf9, 0xf8, 0x0f, 0x0c, 0xdf, 0x31, 0x0d, 0xf1, 0x06, 0xfe, 0x1d,
  0xfd, 0xf1, 0xf3, 0xfd, 0x02, 0xfb, 0x29, 0x45, 0x02, 0xf4, 0x7f, 0x11,
  0xfc, 0xe5, 0x07, 0xfa, 0x22, 0xff, 0x0e, 0x06, 0x0a, 0xf9, 0x06, 0x14,
  0x15, 0x0d, 0x5d, 0x0f, 0xfd, 0x04, 0x1d, 0x04, 0x13, 0xf6, 0x06, 0x0d,
  0x05, 0xf6, 0x16, 0x22, 0x12, 0xe9, 0x58, 0x19, 0xf9, 0x00, 0x07, 0xca,
  0xf2, 0x05, 0x01, 0xe6, 0xee, 0x08, 0x1e, 0x02, 0xf8, 0x0d, 0xd2, 0xd3,
  0x0a, 0x0a, 0x02, 0xb8, 0xda, 0x03, 0xfd, 0xed, 0xef, 0x0d, 0x2b, 0xfb,
  0xfc, 0x04, 0xcf, 0xd9, 0x18, 0x0c, 0xf7, 0xeb, 0xe0, 0x09, 0x03, 0xeb,
  0x06, 0x11, 0x2a, 0xf7, 0x05, 0xf1, 0xe3, 0xdd, 0x18, 0xfe, 0xfa, 0xe5,
  0xce, 0x07, 0x24, 0xe5, 0xee, 0x02, 0xfc, 0xda, 0xe5, 0x0b, 0xd4, 0xde,
  0x15, 0xf4, 0xfe, 0xd6, 0xc5, 0x0c, 0x05, 0xe4, 0xdb, 0x0a, 0x1e, 0xe0,
  0xd4, 0xfd, 0xaf, 0xc0, 0x0c, 0x12, 0x04, 0xf0, 0xd8, 0xfc, 0xef, 0xea,
  0xfe, 0x12, 0x20, 0x0e, 0xf7, 0xff, 0xc2, 0xcd, 0x13, 0xf6, 0xf3, 0xcb,
  0xef, 0x03, 0x1d, 0xe4, 0xee, 0x1e, 0xfd, 0xd5, 0xe9, 0xfe, 0x81, 0xdc,
  0x05, 0xfd, 0xfb, 0xda, 0xeb, 0x03, 0x0f, 0xf1, 0xda, 0x1c, 0x08, 0xe0,
  0xdc, 0xfd, 0xa9, 0xe3, 0x09, 0xf4, 0xfd, 0x00, 0xf3, 0xf6, 0x05, 0xf7,
  0xff, 0x0f, 0xfd, 0xf1, 0xf3, 0xf9, 0x9a, 0xed, 0xd4, 0x07, 0x08, 0xe2,
  0xf7, 0xc9, 0x1a, 0xe5, 0x0e, 0xdc, 0xde, 0x81, 0x14, 0xf4, 0x1c, 0x11,
  0xe4, 0x1a, 0xff, 0xfe, 0xec, 0xc1, 0x01, 0xfe, 0x2b, 0xd6, 0xcd, 0xe6,
  0x26, 0xfd, 0xd3, 0xfb, 0xdf, 0x21, 0xfd, 0xf3, 0x0e, 0xaf, 0x27, 0x41,
  0x1e, 0xb2, 0xb9, 0xde, 0x1c, 0xf9, 0x16, 0x10, 0xe4, 0x0d, 0x0a, 0x02,
  0x02, 0xdc, 0x00, 0xe0, 0xe5, 0xfd, 0x41, 0xee, 0xf3, 0xf3, 0xf1, 0xfb,
  0x01, 0x06, 0xfd, 0x2b, 0x15, 0xe3, 0x0c, 0x09, 0x1f, 0x09, 0x3f, 0x1a,
  0x2c, 0x1c, 0xfd, 0x25, 0xd7, 0xf8, 0xf8, 0x1c, 0x2c, 0xe9, 0x04, 0x25,
  0x1f, 0xe5, 0x2d, 0x26, 0x3d, 0x0d, 0x29, 0x3e, 0xf7, 0x11, 0x23, 0x04,
  0xdc, 0xd5, 0x08, 0xd2, 0xf3, 0x1a, 0x2f, 0x23, 0xf0, 0xe1, 0x08, 0xc1,
  0x06, 0x08, 0x0e, 0x2c, 0xcd, 0xec, 0x02, 0xf9, 0x3f, 0x15, 0x43, 0x4f,
  0x2d, 0x13, 0x57, 0xd5, 0xc9, 0x01, 0x0e, 0xb5, 0xfe, 0xf1, 0xc7, 0xe0,
  0xe0, 0xea, 0x4a, 0x40, 0xd8, 0xea, 0x40, 0x00, 0xed, 0x07, 0x00, 0xe7,
  0x88, 0x01, 0x01, 0x13, 0xfd, 0x00, 0xee, 0x05, 0xf7, 0x19, 0xb8, 0xba,
  0xef, 0x13, 0x1e, 0xe6, 0xbc, 0x07, 0x0f, 0x08, 0xf0, 0xfc, 0x03, 0x02,
  0xf8, 0x0a, 0xd3, 0xb5, 0xd4, 0x03, 0xf5, 0x9c, 0x1c, 0x04, 0x05, 0x0f,
  0xfd, 0xf4, 0x06, 0x11, 0xf9, 0x0e, 0xf1, 0xc8, 0xfd, 0xde, 0xdd, 0x1c,
  0xbe, 0x05, 0xcd, 0xa9, 0xf9, 0xf3, 0xc3, 0xd8, 0x0a, 0x16, 0xf4, 0xf3,
  0x01, 0xf7, 0x14, 0xf1, 0xf0, 0x00, 0x06, 0x06, 0xff, 0xf5, 0xeb, 0xdd,
  0xef, 0x16, 0xc5, 0x95, 0xe5, 0xe2, 0xe7, 0xb0, 0xf1, 0xfb, 0xa8, 0xdb,
  0xdf, 0xeb, 0x01, 0x91, 0xf3, 0x12, 0xb9, 0xbc, 0x02, 0xd7, 0xc6, 0x1d,
  0x0e, 0x05, 0xd2, 0xf8, 0x35, 0xf4, 0xa1, 0xc4, 0x3a, 0x11, 0xc5, 0x10,
  0xfa, 0xf2, 0x09, 0xf6, 0xe4, 0x04, 0x07, 0x06, 0x08, 0xfc, 0xdd, 0xe6,
  0xf9, 0x0c, 0x96, 0x8c, 0xe8, 0xd9, 0xef, 0xb6, 0xd5, 0xfb, 0xab, 0xb3,
  0xb6, 0xeb, 0xff, 0xac, 0xdb, 0x07, 0xb1, 0x81, 0xff, 0x00, 0xfc, 0x2d,
  0x32, 0xeb, 0xf5, 0x0e, 0x35, 0xf6, 0x0d, 0x2a, 0x47, 0xd9, 0x71, 0x3c,
  0x00, 0xea, 0x17, 0x13, 0x18, 0xee, 0x09, 0xf3, 0xff, 0x0c, 0x17, 0xfb,
  0x08, 0x06, 0x3e, 0x13, 0x04, 0x02, 0x13, 0x31, 0x19, 0xf2, 0x07, 0x13,
  0x23, 0xf5, 0xff, 0x19, 0x2d, 0x06, 0x39, 0x3b, 0x00, 0xfd, 0x16, 0x18,
  0x36, 0xfb, 0x11, 0x23, 0x1e, 0x0c, 0xfd, 0x1e, 0x18, 0xce, 0x56, 0x33,
  0xfb, 0xee, 0x16, 0x01, 0x1a, 0xf5, 0x0e, 0x0e, 0x0e, 0x08, 0xf8, 0x0e,
  0x04, 0x07, 0x30, 0x23, 0xf6, 0x03, 0x0d, 0x18, 0x1e, 0xea, 0x06, 0x11,
  0x10, 0x09, 0xf8, 0x0d, 0x16, 0xe8, 0x53, 0x12, 0xec, 0x09, 0x0f, 0x1a,
  0x1f, 0xe9, 0xfa, 0x08, 0x11, 0xfe, 0x3a, 0x42, 0x2a, 0xe0, 0x7f, 0x30,
  0x07, 0x02, 0x18, 0x06, 0x3a, 0xfe, 0x15, 0x19, 0x11, 0x12, 0x23, 0x15,
  0x14, 0x0b, 0x62, 0x32, 0xfd, 0x0c, 0x09, 0x28, 0x2f, 0xfa, 0x09, 0x35,
  0x1e, 0xfc, 0x1b, 0x3f, 0x31, 0xef, 0x7c, 0x2e, 0xf7, 0x0e, 0x01, 0x2a,
  0x39, 0xeb, 0x0f, 0x1c, 0x39, 0xf7, 0x15, 0x33, 0x3a, 0xf2, 0x6a, 0x3a,
  0x01, 0xf5, 0x14, 0x13, 0x26, 0xfe, 0xf9, 0xf8, 0x27, 0xfa, 0x14, 0x18,
  0x2b, 0xed, 0x4d, 0x14, 0x07, 0x08, 0x10, 0x03, 0x1c, 0xf9, 0x21, 0xfd,
  0x03, 0x08, 0x09, 0x0d, 0xfd, 0x16, 0x31, 0x11, 0xf0, 0x0d, 0x00, 0x0d,
  0x1a, 0xf3, 0x0c, 0x18, 0x1b, 0x03, 0x07, 0x26, 0x20, 0xe0, 0x52, 0x15,
  0xfe, 0xfb, 0x0c, 0x12, 0x20, 0xf1, 0x07, 0x16, 0x13, 0x04, 0x07, 0x21,
  0x29, 0xed, 0x54, 0x2a, 0x09, 0x04, 0x0e, 0xfc, 0x03, 0xfb, 0x17, 0x0b,
  0x0a, 0x0d, 0xf7, 0x0b, 0x09, 0xfd, 0x34, 0x01, 0xeb, 0x0c, 0x03, 0x13,
  0x14, 0xf5, 0xed, 0x17, 0x1c, 0xfa, 0x30, 0x41, 0x17, 0xe7, 0x79, 0x15,
  0x00, 0x01, 0x0a, 0x1b, 0x3c, 0xf2, 0xf3, 0x23, 0x11, 0x02, 0x27, 0x3f,
  0x1c, 0xee, 0x7f, 0x1f, 0x07, 0x0e, 0x0c, 0x12, 0x2f, 0xf0, 0x10, 0x25,
  0x16, 0x00, 0x04, 0x1d, 0x19, 0x10, 0x52, 0x20, 0xcc, 0xbd, 0xb4, 0xcf,
  0x4f, 0xc5, 0xf7, 0x76, 0x0d, 0xcf, 0xca, 0x4e, 0xf5, 0xc5, 0x35, 0x46,
  0xd4, 0xe4, 0xd3, 0x28, 0x3b, 0xc0, 0x18, 0x7f, 0x25, 0xe1, 0xfe, 0x53,
  0x0a, 0x94, 0x4a, 0x35, 0xdf, 0x0c, 0xba, 0x12, 0xf9, 0xb4, 0x04, 0x49,
  0x31, 0xc8, 0xc1, 0x01, 0x36, 0xbf, 0xde, 0x20, 0xdc, 0x36, 0xfe, 0xe3,
  0x3b, 0xdc, 0xf2, 0x03, 0xf3, 0xe3, 0x34, 0xe2, 0xfa, 0xf9, 0x47, 0x09,
  0x01, 0x39, 0x03, 0xf5, 0x15, 0xdc, 0xf4, 0x08, 0xee, 0x0a, 0x50, 0x04,
  0xf5, 0xe7, 0xfc, 0x15, 0x10, 0x44, 0xd4, 0x18, 0x11, 0xdb, 0x18, 0x26,
  0x3f, 0x26, 0x56, 0x14, 0x20, 0x09, 0xdc, 0x0b, 0x14, 0xff, 0x3a, 0x24,
  0xec, 0xe1, 0x0e, 0xf0, 0x05, 0x07, 0x44, 0x13, 0x1d, 0xe2, 0x1e, 0xe8,
  0x23, 0xfd, 0x13, 0x07, 0xcd, 0xe4, 0x35, 0xd2, 0x0b, 0x28, 0x21, 0x3b,
  0xf3, 0xd4, 0xe1, 0xc6, 0x17, 0x0e, 0xf5, 0x2b, 0xc8, 0xe0, 0x2f, 0xfb,
  0x46, 0x39, 0x0e, 0x39, 0x46, 0x21, 0xe5, 0xb9, 0x10, 0x10, 0x05, 0x41,
  0x23, 0xf6, 0xf7, 0xec, 0x16, 0xfc, 0x10, 0x13, 0x27, 0xfd, 0x5e, 0x33,
  0x09, 0x07, 0x07, 0x27, 0x1b, 0xf1, 0xe7, 0xcd, 0x09, 0xf4, 0x11, 0x11,
  0x23, 0xf3, 0x36, 0x38, 0x08, 0x11, 0x0f, 0x23, 0x2f, 0xf4, 0xf5, 0xe0,
  0x0b, 0x01, 0x1b, 0x14, 0x14, 0xf4, 0x51, 0x39, 0x06, 0x09, 0x02, 0x26,
  0x2c, 0xf4, 0xf2, 0xf6, 0x12, 0x04, 0x1d, 0x07, 0x19, 0xec, 0x59, 0x2a,
  0xfc, 0x03, 0x03, 0x15, 0x18, 0xee, 0xf0, 0xf2, 0x0a, 0xf3, 0x01, 0x09,
  0x0f, 0xde, 0x5f, 0x13, 0x03, 0x0b, 0x05, 0x08, 0x2a, 0xeb, 0xfa, 0xde,
  0x06, 0xf7, 0x0d, 0x07, 0x0d, 0xe0, 0x54, 0x32, 0x0b, 0x06, 0x17, 0x2f,
  0x32, 0xfd, 0x10, 0x13, 0x2c, 0x0e, 0x38, 0x35, 0x2f, 0xea, 0x77, 0x33,
  0x09, 0x0d, 0x00, 0x1b, 0x36, 0xfd, 0x06, 0x15, 0x12, 0x04, 0x31, 0x2c,
  0x29, 0xcf, 0x7f, 0x37, 0xf8, 0x17, 0x16, 0x22, 0x29, 0xea, 0x02, 0x23,
  0x22, 0x03, 0x31, 0x2f, 0x28, 0xd1, 0x68, 0x25, 0xc8, 0xb6, 0x03, 0x29,
  0x08, 0x05, 0x0f, 0x43, 0x47, 0xe7, 0xef, 0x53, 0x2e, 0x31, 0xe7, 0x0a,
  0xd1, 0xbc, 0xea, 0x1b, 0xc2, 0xff, 0x11, 0x4e, 0x34, 0xfc, 0x9a, 0x48,
  0x0d, 0x2d, 0xcd, 0xcc, 0xfa, 0xd9, 0x10, 0x18, 0xcf, 0x16, 0x1c, 0x51,
  0x33, 0xf6, 0xb9, 0x4b, 0x19, 0x1e, 0xca, 0x8f, 0xea, 0xf4, 0x18, 0x59,
  0x45, 0xfe, 0xc3, 0xec, 0xeb, 0xf3, 0xf4, 0x2a, 0x19, 0x15, 0x45, 0x42,
  0xf2, 0xdc, 0xeb, 0x3d, 0x31, 0x21, 0xc2, 0xf2, 0x1f, 0xcd, 0xbb, 0x31,
  0x21, 0x00, 0x30, 0xf3, 0xf2, 0xe6, 0x05, 0x2d, 0xf5, 0x07, 0x01, 0xe5,
  0x34, 0xe1, 0xd9, 0xf9, 0x20, 0x36, 0xe8, 0xef, 0xd7, 0xde, 0x19, 0x48,
  0x4a, 0x11, 0xca, 0xf9, 0xe9, 0xee, 0x29, 0x24, 0x21, 0x1e, 0x7f, 0x2e,
  0xf7, 0xe6, 0xea, 0x39, 0x39, 0x13, 0xc8, 0x24, 0x1a, 0xf0, 0xfe, 0x08,
  0x39, 0x2d, 0x7d, 0x06, 0xef, 0xf7, 0x23, 0x56, 0xf9, 0x17, 0x17, 0xf7,
  0x36, 0xe5, 0xe8, 0x06, 0x3c, 0x1f, 0x34, 0xe9, 0xfb, 0xf0, 0x0f, 0x34,
  0x23, 0xf6, 0xef, 0xde, 0x20, 0xfa, 0x1e, 0x10, 0x2f, 0xe4, 0x5b, 0x32,
  0x0b, 0xd6, 0x0c, 0xfe, 0x1b, 0xfb, 0x08, 0xea, 0x00, 0x09, 0x08, 0xf7,
  0xf8, 0x0d, 0x2f, 0x1a, 0x04, 0x00, 0x07, 0x29, 0x24, 0xf1, 0x07, 0x06,
  0x24, 0xf5, 0xfa, 0xf3, 0x2c, 0x01, 0xf4, 0x21, 0xff, 0xeb, 0x0e, 0x14,
  0x2a, 0x03, 0xfd, 0xfa, 0x1e, 0x04, 0xf8, 0xf9, 0x2c, 0xdb, 0x4a, 0x25,
  0x09, 0xd5, 0x01, 0xfc, 0xf8, 0x06, 0x0e, 0x00, 0xf9, 0x04, 0xf8, 0xf6,
  0x07, 0xfe, 0x4b, 0x08, 0x05, 0xed, 0x07, 0x11, 0x1b, 0xfe, 0x04, 0x00,
  0xfd, 0xfe, 0xea, 0x0d, 0x03, 0xea, 0x1b, 0x25, 0xef, 0xf7, 0x15, 0x16,
  0x2d, 0x07, 0xfc, 0x04, 0x20, 0x03, 0x23, 0x31, 0x21, 0xd4, 0x7f, 0x1e,
  0x06, 0xe4, 0xf7, 0x12, 0x29, 0xf6, 0x0c, 0x05, 0x14, 0x09, 0x03, 0x12,
  0x0f, 0x04, 0x52, 0x27, 0xfd, 0x0e, 0x0f, 0x22, 0x0d, 0xf4, 0x04, 0x0c,
  0x09, 0x05, 0x0b, 0x29, 0x12, 0xf2, 0x5a, 0x1e, 0xf3, 0xf5, 0x0d, 0x2d,
  0x37, 0xf9, 0xfc, 0x02, 0x27, 0xfb, 0x1f, 0x15, 0x3e, 0xf4, 0x5b, 0x33,
  0x03, 0xdf, 0xfc, 0x1e, 0x21, 0xfb, 0xf5, 0xe6, 0x22, 0xf7, 0x12, 0x14,
  0x37, 0xef, 0xfa, 0x24, 0x0d, 0xf2, 0xf3, 0xf9, 0x0a, 0xf1, 0x14, 0xed,
  0xfb, 0x0a, 0xf2, 0xe8, 0xfa, 0x0f, 0xf7, 0x0e, 0xf5, 0xf2, 0x18, 0x19,
  0x1d, 0xfd, 0x04, 0x0b, 0x0f, 0x05, 0x01, 0x10, 0x2c, 0xf1, 0x61, 0x27,
  0xfe, 0xd8, 0x03, 0x0d, 0x1e, 0xf5, 0x02, 0xfc, 0x08, 0xfb, 0xf3, 0x02,
  0x21, 0xe1, 0x56, 0x11, 0x05, 0xe7, 0x00, 0xf7, 0x02, 0x03, 0x11, 0x00,
  0x01, 0x04, 0xe6, 0xef, 0xfe, 0xfb, 0xf0, 0xec, 0xf9, 0x0d, 0x1a, 0x0e,
  0x28, 0xf7, 0xea, 0xfa, 0x09, 0x03, 0x2c, 0x3f, 0x17, 0xf5, 0x7f, 0x18,
  0xf9, 0xd8, 0x0b, 0x1d, 0x31, 0xf7, 0x02, 0x1e, 0x1e, 0xf9, 0x1d, 0x40,
  0x27, 0xde, 0x76, 0x2e, 0x02, 0xf7, 0x0e, 0x0f, 0x11, 0xfa, 0x09, 0x0e,
  0x11, 0x09, 0x04, 0x00, 0x0c, 0xfe, 0x3b, 0x0a, 0xd5, 0x0b, 0x13, 0xeb,
  0x04, 0xc7, 0x0d, 0xe2, 0x08, 0xcd, 0xd1, 0x81, 0x04, 0xfc, 0x23, 0x15,
  0xeb, 0x14, 0xf7, 0x00, 0xfc, 0xc5, 0x07, 0x10, 0x21, 0xc7, 0xc3, 0xd3,
  0x30, 0xfc, 0xcb, 0x07, 0xcd, 0x25, 0xed, 0xe6, 0x04, 0xb8, 0x2a, 0x62,
  0x1b, 0xbe, 0xc2, 0xc6, 0x24, 0x04, 0x1d, 0x03, 0xe2, 0x06, 0x17, 0xf4,
  0xfe, 0xd1, 0xfc, 0xf7, 0xe9, 0x02, 0x38, 0xe0, 0x04, 0x0c, 0xed, 0xf5,
  0xf5, 0x08, 0x00, 0x29, 0x1e, 0xe1, 0x0e, 0x12, 0x22, 0x18, 0x3c, 0x0c,
  0x35, 0x0d, 0xfa, 0x13, 0xd6, 0xfb, 0xf3, 0x04, 0x30, 0xdf, 0x06, 0x18,
  0x28, 0xf3, 0x31, 0x24, 0x41, 0xff, 0x27, 0x35, 0xe9, 0x04, 0x30, 0x07,
  0xeb, 0xd4, 0xf6, 0xde, 0xf8, 0x13, 0x36, 0x2c, 0x00, 0xdf, 0x07, 0xcf,
  0xff, 0x07, 0x16, 0x2b, 0xd4, 0xe0, 0x15, 0xf0, 0x42, 0x12, 0x49, 0x5c,
  0x41, 0x11, 0x58, 0xd5, 0xc5, 0x0e, 0x03, 0xca, 0x0c, 0xe5, 0xce, 0xe5,
  0xdc, 0xf7, 0x4e, 0x3a, 0xe6, 0xfe, 0x47, 0xed, 0xf9, 0xfc, 0x17, 0x1d,
  0x3d, 0xfb, 0xfc, 0x09, 0x26, 0xf8, 0x20, 0x10, 0x37, 0xf5, 0x62, 0x2d,
  0x06, 0xde, 0x02, 0x12, 0x1f, 0xf4, 0xfd, 0xf9, 0x2a, 0xff, 0x11, 0x01,
  0x3c, 0xf4, 0x29, 0x14, 0x10, 0xe5, 0x18, 0xfe, 0x0f, 0xf5, 0x1b, 0xe9,
  0x04, 0x07, 0xfe, 0xe2, 0xf1, 0x0e, 0x0b, 0x09, 0xfa, 0xf1, 0x16, 0x0f,
  0x16, 0xf2, 0xfc, 0x06, 0x20, 0x07, 0x0a, 0x09, 0x27, 0xe5, 0x63, 0x22,
  0xfc, 0xd6, 0x0d, 0x15, 0x27, 0xf6, 0xfd, 0x06, 0x23, 0xfb, 0xf0, 0x09,
  0x26, 0xdf, 0x6b, 0x22, 0x04, 0xe0, 0x13, 0xf3, 0xfc, 0xfc, 0x0e, 0x00,
  0x08, 0x0f, 0xf5, 0xfa, 0x06, 0xff, 0x19, 0x01, 0xf9, 0x0c, 0x0f, 0x21,
  0x16, 0xf4, 0xe9, 0xfe, 0x16, 0xf7, 0x2b, 0x49, 0x1b, 0xf3, 0x7f, 0x14,
  0xf9, 0xe0, 0x02, 0x09, 0x2a, 0xf7, 0xf5, 0x21, 0x14, 0x02, 0x14, 0x50,
  0x1d, 0xe7, 0x78, 0x20, 0xfc, 0xfb, 0x17, 0xfd, 0x1e, 0x01, 0x0a, 0x10,
  0x0f, 0x02, 0x0c, 0x10, 0x01, 0x05, 0x4b, 0x0c, 0xd6, 0xbc, 0xd2, 0xeb,
  0xce, 0xeb, 0xed, 0xd2, 0xcd, 0xdb, 0xf2, 0xf5, 0xd2, 0xf9, 0x08, 0xb7,
  0xed, 0xc8, 0xd9, 0x00, 0xea, 0xf6, 0xde, 0xdc, 0xde, 0xf5, 0x11, 0xce,
  0xfc, 0xeb, 0xe7, 0xe8, 0xee, 0xc9, 0xec, 0xf1, 0xef, 0x15, 0xd9, 0x01,
  0xf2, 0xfa, 0x2d, 0xac, 0x07, 0xe4, 0xcb, 0x16, 0xfe, 0x01, 0xee, 0x14,
  0xef, 0xed, 0xef, 0xf9, 0xfe, 0xf5, 0x26, 0xfb, 0xfb, 0x09, 0x31, 0xe9,
  0xfa, 0x11, 0xed, 0x01, 0xf3, 0xf7, 0xf8, 0xfe, 0xfe, 0xfc, 0x13, 0xfd,
  0xf7, 0x03, 0xc8, 0xf3, 0x0a, 0x2f, 0x03, 0x02, 0xd9, 0x03, 0x07, 0x14,
  0x0b, 0x14, 0x42, 0x07, 0x16, 0x03, 0x81, 0xf5, 0x0b, 0xd6, 0xf8, 0x1d,
  0xe7, 0x00, 0x22, 0xda, 0xe2, 0x0b, 0x21, 0x2a, 0xf7, 0xf4, 0x1d, 0xe5,
  0x03, 0xe7, 0xe7, 0xfd, 0xfb, 0xf7, 0x29, 0xfb, 0x03, 0xfd, 0xfa, 0x1e,
  0xf4, 0xfc, 0x06, 0xee, 0x13, 0x09, 0xfe, 0x0c, 0xe5, 0x00, 0x09, 0xff,
  0x1a, 0x0f, 0x27, 0x00, 0x1c, 0x0e, 0x94, 0xf4, 0x06, 0x04, 0x05, 0xe0,
  0xed, 0x0e, 0x11, 0x02, 0xf4, 0x14, 0x0b, 0xfc, 0xf5, 0x11, 0xe1, 0xe9,
  0x01, 0x01, 0xfc, 0xf9, 0xdd, 0x0a, 0xff, 0xf1, 0x0b, 0x13, 0x25, 0x02,
  0xfd, 0x02, 0xd4, 0xef, 0x07, 0x03, 0xe4, 0xe1, 0xef, 0x10, 0xf6, 0xeb,
  0xca, 0x09, 0x1a, 0x01, 0xcf, 0x00, 0xf6, 0xe7, 0x16, 0xf8, 0x02, 0xe8,
  0xee, 0x08, 0x16, 0xf9, 0xe5, 0x0d, 0x1c, 0xf1, 0xda, 0x00, 0xaf, 0xde,
  0xff, 0xfd, 0xf9, 0xf2, 0xf9, 0x04, 0x0a, 0x06, 0x12, 0x0c, 0x2e, 0xf9,
  0x07, 0xfa, 0xc5, 0xdd, 0x01, 0x05, 0xf1, 0xd7, 0xf4, 0x00, 0xf6, 0xe3,
  0xc9, 0x17, 0x18, 0xd8, 0xd6, 0xfa, 0xb3, 0xe0, 0x17, 0x0d, 0xfd, 0xe9,
  0xe8, 0x09, 0x2e, 0xfb, 0xed, 0x1e, 0xfe, 0xd7, 0xd4, 0xfe, 0xa7, 0xef,
  0x00, 0x0c, 0x08, 0xf7, 0xef, 0x00, 0x05, 0x04, 0xf7, 0x06, 0x18, 0xed,
  0xf7, 0xfb, 0xa0, 0xe9, 0x0b, 0xfa, 0xff, 0xe5, 0xe0, 0x07, 0xe5, 0xdc,
  0xd1, 0x08, 0xff, 0xb3, 0xc1, 0xf4, 0x81, 0xe3, 0x20, 0x0c, 0x17, 0xe7,
  0x05, 0x12, 0xf3, 0xf9, 0xe4, 0x1d, 0x4c, 0x02, 0xe4, 0x1c, 0xe2, 0xd3,
  0x18, 0xfd, 0x05, 0xe2, 0xf7, 0xf6, 0x19, 0xf9, 0xfb, 0x2b, 0x55, 0x04,
  0x05, 0x13, 0xfa, 0xee, 0x0e, 0x14, 0x00, 0xe9, 0x07, 0xf7, 0xf4, 0x0b,
  0xf8, 0x26, 0x4a, 0x12, 0xeb, 0xfd, 0xf6, 0xf6, 0x1f, 0x0f, 0x1f, 0xe5,
  0xee, 0xf4, 0x27, 0xd9, 0xfa, 0x0e, 0x04, 0xe0, 0xec, 0xf7, 0x9e, 0xdf,
  0x0f, 0x09, 0xf7, 0xcb, 0xd6, 0xf6, 0x06, 0xf8, 0xda, 0x17, 0x0f, 0xe7,
  0xe5, 0xe3, 0xb6, 0xce, 0x00, 0x04, 0x17, 0xfc, 0xdb, 0x00, 0x03, 0xe0,
  0xf4, 0x15, 0x20, 0xfa, 0x01, 0xf6, 0x81, 0xd2, 0x10, 0xfb, 0xff, 0xe3,
  0x00, 0xe9, 0x30, 0xfe, 0x07, 0x13, 0x05, 0xc4, 0xf8, 0xee, 0xb7, 0x07,
  0x15, 0xf4, 0xec, 0xd7, 0xf2, 0xeb, 0xf5, 0x04, 0xf5, 0x0b, 0x16, 0xc4,
  0xf0, 0xd0, 0x8e, 0xf8, 0x0d, 0x00, 0x07, 0x09, 0xe3, 0xf6, 0x17, 0xf4,
  0x06, 0x01, 0x0a, 0x00, 0x15, 0xf4, 0x8d, 0xed, 0xca, 0xfc, 0xff, 0xff,
  0x04, 0x00, 0x00, 0x00, 0x60, 0x00, 0x00, 0x00, 0x34, 0x02, 0x00, 0x00,
  0x55, 0xfe, 0xff, 0xff, 0xde, 0x00, 0x00, 0x00, 0x37, 0x02, 0x00, 0x00,
  0x75, 0xfa, 0xff, 0xff, 0x11, 0xfe, 0xff, 0xff, 0x79, 0x01, 0x00, 0x00,
  0x85, 0xfc, 0xff, 0xff, 0x57, 0xff, 0xff, 0xff, 0x03, 0xff, 0xff, 0xff,
  0xf9, 0x00, 0x00, 0x00, 0x7d, 0x04, 0x00, 0x00, 0xcb, 0xfd, 0xff, 0xff,
  0xcc, 0xfe, 0xff, 0xff, 0x8d, 0xf4, 0xff, 0xff, 0xa5, 0xfd, 0xff, 0xff,
  0xf1, 0x06, 0x00, 0x00, 0xa1, 0xfd, 0xff, 0xff, 0x08, 0xfe, 0xff, 0xff,
  0x85, 0x01, 0x00, 0x00, 0x59, 0xfe, 0xff, 0xff, 0xf6, 0xfd, 0xff, 0xff,
  0x5b, 0xfe, 0xff, 0xff, 0x5e, 0xfd, 0xff, 0xff, 0x36, 0xfd, 0xff, 0xff,
  0x04, 0x00, 0x00, 0x00, 0x80, 0x01, 0x00, 0x00, 0x9e, 0x03, 0x0a, 0xa4,
  0xab, 0x33, 0x43, 0x4d, 0x35, 0x12, 0x9c, 0x2c, 0x0a, 0x11, 0x81, 0x7d,
  0xe9, 0x59, 0x0e, 0x9c, 0x23, 0x88, 0xd0, 0x25, 0xcb, 0x2f, 0xe6, 0x95,
  0xe4, 0x1e, 0x1c, 0x19, 0x30, 0x02, 0xd3, 0x15, 0x3d, 0x35, 0x81, 0x4e,
  0x0f, 0x08, 0x2f, 0xae, 0x38, 0x91, 0x12, 0xe0, 0x3d, 0x86, 0xb7, 0x81,
  0x41, 0x24, 0xb5, 0x10, 0x2d, 0x8e, 0x61, 0xbb, 0xcd, 0x94, 0x1a, 0xbd,
  0xdd, 0x37, 0xf2, 0x81, 0x2a, 0x9c, 0xce, 0x15, 0xe9, 0x1a, 0xf8, 0xb4,
  0xac, 0xf4, 0x3e, 0x4c, 0x27, 0x02, 0xc7, 0x3d, 0x3e, 0x4e, 0xa0, 0x34,
  0x29, 0x0a, 0x4f, 0x89, 0x3d, 0x81, 0xf6, 0xf2, 0xf5, 0xa3, 0xb9, 0xfb,
  0x7f, 0x7e, 0xa1, 0x8d, 0xa7, 0xae, 0x4c, 0x52, 0xc8, 0x6b, 0x6b, 0xcd,
  0xcf, 0x7f, 0x8f, 0xe9, 0x6f, 0xce, 0xb8, 0xea, 0xf1, 0x0b, 0xfe, 0xdb,
  0xcd, 0x14, 0x24, 0x18, 0x0b, 0xfe, 0xd5, 0x37, 0x2d, 0x19, 0x9c, 0x4f,
  0x12, 0x36, 0x0c, 0xec, 0x17, 0x81, 0xea, 0xed, 0xf5, 0x5f, 0xbd, 0xc5,
  0xf7, 0x4e, 0x3e, 0x8b, 0xab, 0x21, 0x8e, 0xbe, 0x32, 0x24, 0x8c, 0xb7,
  0x81, 0xe8, 0x38, 0x4c, 0xcb, 0x95, 0x38, 0xfa, 0xf0, 0x26, 0xef, 0xc5,
  0xc1, 0x32, 0x13, 0x2b, 0x35, 0xfc, 0xb4, 0x4c, 0x08, 0x3f, 0x81, 0x39,
  0x1c, 0x21, 0x12, 0xe2, 0x12, 0x85, 0xfd, 0xef, 0x60, 0x17, 0x4f, 0xce,
  0x84, 0x94, 0xc9, 0x4c, 0x81, 0xba, 0xb2, 0x96, 0xdc, 0x71, 0xdd, 0x9a,
  0xa8, 0x70, 0x72, 0xbb, 0x95, 0x82, 0x39, 0xab, 0xa2, 0x21, 0xa0, 0x5e,
  0x29, 0x5a, 0xae, 0x11, 0x81, 0xad, 0x1a, 0x4c, 0x92, 0x26, 0x3e, 0x91,
  0xbf, 0x6f, 0xeb, 0x67, 0x54, 0x0a, 0x8c, 0xa5, 0xc2, 0x11, 0x00, 0xc2,
  0xbb, 0x37, 0x2f, 0x54, 0x33, 0xe4, 0xad, 0x2a, 0x17, 0x1b, 0x88, 0x64,
  0x27, 0x06, 0x35, 0xbf, 0x36, 0x81, 0xf6, 0x02, 0xa1, 0x04, 0x0c, 0xcd,
  0xbd, 0x2b, 0x01, 0x20, 0x0d, 0x0a, 0xc9, 0x1b, 0x2a, 0x1f, 0x81, 0x53,
  0xf8, 0x2f, 0x0e, 0xce, 0x0c, 0x9e, 0x12, 0xde, 0x54, 0xd0, 0x12, 0x50,
  0x24, 0xab, 0xf3, 0xd7, 0xc7, 0x1a, 0x40, 0xd3, 0xde, 0xbb, 0x67, 0xa2,
  0x0c, 0xf0, 0xe5, 0x29, 0xb6, 0x7f, 0x21, 0x11, 0x64, 0xa2, 0x4b, 0x70,
  0x72, 0xd6, 0xb7, 0xb7, 0xd9, 0x25, 0x76, 0xc4, 0xb3, 0x9b, 0x6e, 0x9d,
  0x2a, 0xac, 0xa9, 0x62, 0xef, 0x7f, 0x27, 0x43, 0x31, 0xd0, 0x29, 0x66,
  0x4a, 0xb7, 0xd6, 0xad, 0xfc, 0x17, 0x5f, 0xba, 0xf1, 0xc8, 0x7f, 0x86,
  0x26, 0xc8, 0xdf, 0x4d, 0xc3, 0x79, 0x05, 0xe3, 0xd3, 0x30, 0xef, 0xa8,
  0xcf, 0x3f, 0x39, 0x40, 0x09, 0x10, 0xc6, 0x3a, 0x05, 0x3f, 0x81, 0x54,
  0xfe, 0x05, 0x35, 0xa8, 0x1c, 0x96, 0x03, 0xe0, 0xc2, 0xfe, 0xff, 0xff,
  0x04, 0x00, 0x00, 0x00, 0x40, 0x00, 0x00, 0x00, 0x5d, 0x00, 0x00, 0x00,
  0x84, 0x00, 0x00, 0x00, 0xb0, 0xfd, 0xff, 0xff, 0x0f, 0xfd, 0xff, 0xff,
  0x00, 0x00, 0x00, 0x00, 0x91, 0x03, 0x00, 0x00, 0x55, 0xfc, 0xff, 0xff,
  0xf9, 0x01, 0x00, 0x00, 0xff, 0xfb, 0xff, 0xff, 0xef, 0xfd, 0xff, 0xff,
  0x9e, 0x02, 0x00, 0x00, 0xe8, 0xfd, 0xff, 0xff, 0x75, 0x02, 0x00, 0x00,
  0x60, 0x02, 0x00, 0x00, 0x64, 0x04, 0x00, 0x00, 0xdd, 0x00, 0x00, 0x00,
  0x0e, 0xff, 0xff, 0xff, 0x04, 0x00, 0x00, 0x00, 0x20, 0x00, 0x00, 0x00,
  0x40, 0x13, 0xf4, 0x1c, 0xf0, 0x3f, 0xf4, 0x5b, 0x1a, 0xe7, 0x42, 0x0c,
  0xa3, 0xc8, 0x81, 0x17, 0xb0, 0x94, 0xda, 0xd5, 0x27, 0x81, 0x03, 0xa2,
  0x2b, 0x2a, 0xad, 0xb5, 0x54, 0x4b, 0x77, 0x87, 0x3a, 0xff, 0xff, 0xff,
  0x04, 0x00, 0x00, 0x00, 0x08, 0x00, 0x00, 0x00, 0x84, 0xfe, 0xff, 0xff,
  0x08, 0x02, 0x00, 0x00, 0x4e, 0xff, 0xff, 0xff, 0x04, 0x00, 0x00, 0x00,
  0x08, 0x00, 0x00, 0x00, 0x01, 0x00, 0x00, 0x00, 0x02, 0x00, 0x00, 0x00,
  0x98, 0xea, 0xff, 0xff, 0x9c, 0xea, 0xff, 0xff, 0x0f, 0x00, 0x00, 0x00,
  0x4d, 0x4c, 0x49, 0x52, 0x20, 0x43, 0x6f, 0x6e, 0x76, 0x65, 0x72, 0x74,
  0x65, 0x64, 0x2e, 0x00, 0x01, 0x00, 0x00, 0x00, 0x14, 0x00, 0x00, 0x00,
  0x00, 0x00, 0x0e, 0x00, 0x18, 0x00, 0x14, 0x00, 0x10, 0x00, 0x0c, 0x00,
  0x08, 0x00, 0x04, 0x00, 0x0e, 0x00, 0x00, 0x00, 0x14, 0x00, 0x00, 0x00,
  0x1c, 0x00, 0x00, 0x00, 0xe0, 0x02, 0x00, 0x00, 0xe4, 0x02, 0x00, 0x00,
  0xe8, 0x02, 0x00, 0x00, 0x04, 0x00, 0x00, 0x00, 0x6d, 0x61, 0x69, 0x6e,
  0x00, 0x00, 0x00, 0x00, 0x0a, 0x00, 0x00, 0x00, 0x7c, 0x02, 0x00, 0x00,
  0x18, 0x02, 0x00, 0x00, 0xc8, 0x01, 0x00, 0x00, 0x84, 0x01, 0x00, 0x00,
  0x34, 0x01, 0x00, 0x00, 0xf0, 0x00, 0x00, 0x00, 0xbc, 0x00, 0x00, 0x00,
  0x78, 0x00, 0x00, 0x00, 0x40, 0x00, 0x00, 0x00, 0x04, 0x00, 0x00, 0x00,
  0x1a, 0xfe, 0xff, 0xff, 0x1c, 0x00, 0x00, 0x00, 0x00, 0x00, 0x00, 0x09,
  0x1c, 0x00, 0x00, 0x00, 0x20, 0x00, 0x00, 0x00, 0x04, 0x00, 0x00, 0x00,
  0x00, 0x00, 0x06, 0x00, 0x08, 0x00, 0x04, 0x00, 0x06, 0x00, 0x00, 0x00,
  0x00, 0x00, 0x80, 0x3f, 0x01, 0x00, 0x00, 0x00, 0x15, 0x00, 0x00, 0x00,
  0x01, 0x00, 0x00, 0x00, 0x14, 0x00, 0x00, 0x00, 0xde, 0xfe, 0xff, 0xff,
  0x14, 0x00, 0x00, 0x00, 0x00, 0x00, 0x00, 0x08, 0x10, 0x00, 0x00, 0x00,
  0x14, 0x00, 0x00, 0x00, 0x03, 0x00, 0x00, 0x00, 0x6c, 0xeb, 0xff, 0xff,
  0x01, 0x00, 0x00, 0x00, 0x14, 0x00, 0x00, 0x00, 0x03, 0x00, 0x00, 0x00,
  0x13, 0x00, 0x00, 0x00, 0x03, 0x00, 0x00, 0x00, 0x02, 0x00, 0x00, 0x00,
  0x86, 0xfe, 0xff, 0xff, 0x1c, 0x00, 0x00, 0x00, 0x00, 0x00, 0x00, 0x08,
  0x1c, 0x00, 0x00, 0x00, 0x20, 0x00, 0x00, 0x00, 0x03, 0x00, 0x00, 0x00,
  0x00, 0x00, 0x06, 0x00, 0x08, 0x00, 0x07, 0x00, 0x06, 0x00, 0x00, 0x00,
  0x00, 0x00, 0x00, 0x01, 0x01, 0x00, 0x00, 0x00, 0x13, 0x00, 0x00, 0x00,
  0x03, 0x00, 0x00, 0x00, 0x12, 0x00, 0x00, 0x00, 0x05, 0x00, 0x00, 0x00,
  0x04, 0x00, 0x00, 0x00, 0x52, 0xff, 0xff, 0xff, 0x14, 0x00, 0x00, 0x00,
  0x00, 0x00, 0x00, 0x1b, 0x10, 0x00, 0x00, 0x00, 0x14, 0x00, 0x00, 0x00,
  0x02, 0x00, 0x00, 0x00, 0xe0, 0xeb, 0xff, 0xff, 0x01, 0x00, 0x00, 0x00,
  0x12, 0x00, 0x00, 0x00, 0x02, 0x00, 0x00, 0x00, 0x11, 0x00, 0x00, 0x00,
  0x01, 0x00, 0x00, 0x00, 0x82, 0xff, 0xff, 0xff, 0x14, 0x00, 0x00, 0x00,
  0x00, 0x00, 0x00, 0x05, 0x24, 0x00, 0x00, 0x00, 0x28, 0x00, 0x00, 0x00,
  0x01, 0x00, 0x00, 0x00, 0xe6, 0xfe, 0xff, 0xff, 0x02, 0x00, 0x00, 0x00,
  0x02, 0x00, 0x00, 0x00, 0x02, 0x00, 0x00, 0x00, 0x02, 0x00, 0x00, 0x00,
  0x00, 0x00, 0x00, 0x01, 0x01, 0x00, 0x00, 0x00, 0x11, 0x00, 0x00, 0x00,
  0x01, 0x00, 0x00, 0x00, 0x10, 0x00, 0x00, 0x00, 0xd6, 0xfe, 0xff, 0xff,
  0x10, 0x00, 0x00, 0x00, 0x00, 0x00, 0x00, 0x01, 0x18, 0x00, 0x00, 0x00,
  0x1c, 0x00, 0x00, 0x00, 0xc8, 0xfe, 0xff, 0xff, 0x00, 0x00, 0x00, 0x01,
  0x01, 0x00, 0x00, 0x00, 0x01, 0x00, 0x00, 0x00, 0x01, 0x00, 0x00, 0x00,
  0x10, 0x00, 0x00, 0x00, 0x03, 0x00, 0x00, 0x00, 0x0f, 0x00, 0x00, 0x00,
  0x07, 0x00, 0x00, 0x00, 0x06, 0x00, 0x00, 0x00, 0x00, 0x00, 0x0e, 0x00,
  0x18, 0x00, 0x14, 0x00, 0x10, 0x00, 0x0c, 0x00, 0x0b, 0x00, 0x04, 0x00,
  0x0e, 0x00, 0x00, 0x00, 0x14, 0x00, 0x00, 0x00, 0x00, 0x00, 0x00, 0x05,
  0x24, 0x00, 0x00, 0x00, 0x28, 0x00, 0x00, 0x00, 0x01, 0x00, 0x00, 0x00,
  0x72, 0xff, 0xff, 0xff, 0x02, 0x00, 0x00, 0x00, 0x02, 0x00, 0x00, 0x00,
  0x02, 0x00, 0x00, 0x00, 0x02, 0x00, 0x00, 0x00, 0x00, 0x00, 0x00, 0x01,
  0x01, 0x00, 0x00, 0x00, 0x0f, 0x00, 0x00, 0x00, 0x01, 0x00, 0x00, 0x00,
  0x0e, 0x00, 0x00, 0x00, 0x62, 0xff, 0xff, 0xff, 0x10, 0x00, 0x00, 0x00,
  0x00, 0x00, 0x00, 0x01, 0x18, 0x00, 0x00, 0x00, 0x1c, 0x00, 0x00, 0x00,
  0x54, 0xff, 0xff, 0xff, 0x00, 0x00, 0x00, 0x01, 0x01, 0x00, 0x00, 0x00,
  0x01, 0x00, 0x00, 0x00, 0x01, 0x00, 0x00, 0x00, 0x0e, 0x00, 0x00, 0x00,
  0x03, 0x00, 0x00, 0x00, 0x0d, 0x00, 0x00, 0x00, 0x09, 0x00, 0x00, 0x00,
  0x08, 0x00, 0x00, 0x00, 0x00, 0x00, 0x0e, 0x00, 0x1a, 0x00, 0x14, 0x00,
  0x10, 0x00, 0x0c, 0x00, 0x0b, 0x00, 0x04, 0x00, 0x0e, 0x00, 0x00, 0x00,
  0x24, 0x00, 0x00, 0x00, 0x00, 0x00, 0x00, 0x05, 0x34, 0x00, 0x00, 0x00,
  0x38, 0x00, 0x00, 0x00, 0x01, 0x00, 0x00, 0x00, 0x00, 0x00, 0x0e, 0x00,
  0x18, 0x00, 0x17, 0x00, 0x10, 0x00, 0x0c, 0x00, 0x08, 0x00, 0x04, 0x00,
  0x0e, 0x00, 0x00, 0x00, 0x02, 0x00, 0x00, 0x00, 0x02, 0x00, 0x00, 0x00,
  0x02, 0x00, 0x00, 0x00, 0x02, 0x00, 0x00, 0x00, 0x00, 0x00, 0x00, 0x01,
  0x01, 0x00, 0x00, 0x00, 0x0d, 0x00, 0x00, 0x00, 0x01, 0x00, 0x00, 0x00,
  0x0c, 0x00, 0x00, 0x00, 0x00, 0x00, 0x0e, 0x00, 0x14, 0x00, 0x00, 0x00,
  0x10, 0x00, 0x0c, 0x00, 0x0b, 0x00, 0x04, 0x00, 0x0e, 0x00, 0x00, 0x00,
  0x1c, 0x00, 0x00, 0x00, 0x00, 0x00, 0x00, 0x01, 0x24, 0x00, 0x00, 0x00,
  0x28, 0x00, 0x00, 0x00, 0x0c, 0x00, 0x10, 0x00, 0x00, 0x00, 0x0c, 0x00,
  0x08, 0x00, 0x07, 0x00, 0x0c, 0x00, 0x00, 0x00, 0x00, 0x00, 0x00, 0x01,
  0x01, 0x00, 0x00, 0x00, 0x01, 0x00, 0x00, 0x00, 0x01, 0x00, 0x00, 0x00,
  0x0c, 0x00, 0x00, 0x00, 0x03, 0x00, 0x00, 0x00, 0x00, 0x00, 0x00, 0x00,
  0x0b, 0x00, 0x00, 0x00, 0x0a, 0x00, 0x00, 0x00, 0x01, 0x00, 0x00, 0x00,
  0x15, 0x00, 0x00, 0x00, 0x01, 0x00, 0x00, 0x00, 0x00, 0x00, 0x00, 0x00,
  0x16, 0x00, 0x00, 0x00, 0x9c, 0x12, 0x00, 0x00, 0x14, 0x12, 0x00, 0x00,
  0x88, 0x11, 0x00, 0x00, 0x0c, 0x11, 0x00, 0x00, 0xd8, 0x0f, 0x00, 0x00,
  0xbc, 0x0e, 0x00, 0x00, 0xe0, 0x0c, 0x00, 0x00, 0x54, 0x0b, 0x00, 0x00,
  0xd8, 0x09, 0x00, 0x00, 0xac, 0x08, 0x00, 0x00, 0x98, 0x07, 0x00, 0x00,
  0xcc, 0x06, 0x00, 0x00, 0xe8, 0x05, 0x00, 0x00, 0x54, 0x05, 0x00, 0x00,
  0x68, 0x04, 0x00, 0x00, 0xd4, 0x03, 0x00, 0x00, 0xe8, 0x02, 0x00, 0x00,
  0x54, 0x02, 0x00, 0x00, 0xc8, 0x01, 0x00, 0x00, 0x1c, 0x01, 0x00, 0x00,
  0x80, 0x00, 0x00, 0x00, 0x04, 0x00, 0x00, 0x00, 0xd2, 0xed, 0xff, 0xff,
  0x00, 0x00, 0x00, 0x01, 0x18, 0x00, 0x00, 0x00, 0x20, 0x00, 0x00, 0x00,
  0x3c, 0x00, 0x00, 0x00, 0x16, 0x00, 0x00, 0x00, 0x00, 0x00, 0x00, 0x09,
  0x50, 0x00, 0x00, 0x00, 0x02, 0x00, 0x00, 0x00, 0xff, 0xff, 0xff, 0xff,
  0x02, 0x00, 0x00, 0x00, 0xb4, 0xed, 0xff, 0xff, 0x08, 0x00, 0x00, 0x00,
  0x10, 0x00, 0x00, 0x00, 0x01, 0x00, 0x00, 0x00, 0x80, 0xff, 0xff, 0xff,
  0xff, 0xff, 0xff, 0xff, 0x01, 0x00, 0x00, 0x00, 0x00, 0x00, 0x80, 0x3b,
  0x19, 0x00, 0x00, 0x00, 0x53, 0x74, 0x61, 0x74, 0x65, 0x66, 0x75, 0x6c,
  0x50, 0x61, 0x72, 0x74, 0x69, 0x74, 0x69, 0x6f, 0x6e, 0x65, 0x64, 0x43,
  0x61, 0x6c, 0x6c, 0x3a, 0x30, 0x00, 0x00, 0x00, 0x02, 0x00, 0x00, 0x00,
  0x01, 0x00, 0x00, 0x00, 0x02, 0x00, 0x00, 0x00, 0x4a, 0xee, 0xff, 0xff,
  0x00, 0x00, 0x00, 0x01, 0x18, 0x00, 0x00, 0x00, 0x20, 0x00, 0x00, 0x00,
  0x40, 0x00, 0x00, 0x00, 0x15, 0x00, 0x00, 0x00, 0x00, 0x00, 0x00, 0x09,
  0x70, 0x00, 0x00, 0x00, 0x02, 0x00, 0x00, 0x00, 0xff, 0xff, 0xff, 0xff,
  0x02, 0x00, 0x00, 0x00, 0x2c, 0xee, 0xff, 0xff, 0x08, 0x00, 0x00, 0x00,
  0x14, 0x00, 0x00, 0x00, 0x01, 0x00, 0x00, 0x00, 0x17, 0x00, 0x00, 0x00,
  0x00, 0x00, 0x00, 0x00, 0x00, 0x00, 0x00, 0x00, 0x01, 0x00, 0x00, 0x00,
  0x37, 0x5e, 0x8e, 0x3d, 0x34, 0x00, 0x00, 0x00, 0x73, 0x65, 0x71, 0x75,
  0x65, 0x6e, 0x74, 0x69, 0x61, 0x6c, 0x2f, 0x64, 0x65, 0x6e, 0x73, 0x65,
  0x5f, 0x31, 0x2f, 0x4d, 0x61, 0x74, 0x4d, 0x75, 0x6c, 0x3b, 0x73, 0x65,
  0x71, 0x75, 0x65, 0x6e, 0x74, 0x69, 0x61, 0x6c, 0x2f, 0x64, 0x65, 0x6e,
  0x73, 0x65, 0x5f, 0x31, 0x2f, 0x42, 0x69, 0x61, 0x73, 0x41, 0x64, 0x64,
  0x00, 0x00, 0x00, 0x00, 0x02, 0x00, 0x00, 0x00, 0x01, 0x00, 0x00, 0x00,
  0x02, 0x00, 0x00, 0x00, 0xe2, 0xee, 0xff, 0xff, 0x00, 0x00, 0x00, 0x01,
  0x18, 0x00, 0x00, 0x00, 0x20, 0x00, 0x00, 0x00, 0x40, 0x00, 0x00, 0x00,
  0x14, 0x00, 0x00, 0x00, 0x00, 0x00, 0x00, 0x09, 0x80, 0x00, 0x00, 0x00,
  0x02, 0x00, 0x00, 0x00, 0xff, 0xff, 0xff, 0xff, 0x10, 0x00, 0x00, 0x00,
  0xc4, 0xee, 0xff, 0xff, 0x08, 0x00, 0x00, 0x00, 0x14, 0x00, 0x00, 0x00,
  0x01, 0x00, 0x00, 0x00, 0x80, 0xff, 0xff, 0xff, 0xff, 0xff, 0xff, 0xff,
  0x00, 0x00, 0x00, 0x00, 0x01, 0x00, 0x00, 0x00, 0x92, 0xb3, 0x0b, 0x3c,
  0x46, 0x00, 0x00, 0x00, 0x73, 0x65, 0x71, 0x75, 0x65, 0x6e, 0x74, 0x69,
  0x61, 0x6c, 0x2f, 0x64, 0x65, 0x6e, 0x73, 0x65, 0x2f, 0x4d, 0x61, 0x74,
  0x4d, 0x75, 0x6c, 0x3b, 0x73, 0x65, 0x71, 0x75, 0x65, 0x6e, 0x74, 0x69,
  0x61, 0x6c, 0x2f, 0x64, 0x65, 0x6e, 0x73, 0x65, 0x2f, 0x52, 0x65, 0x6c,
  0x75, 0x3b, 0x73, 0x65, 0x71, 0x75, 0x65, 0x6e, 0x74, 0x69, 0x61, 0x6c,
  0x2f, 0x64, 0x65, 0x6e, 0x73, 0x65, 0x2f, 0x42, 0x69, 0x61, 0x73, 0x41,
  0x64, 0x64, 0x00, 0x00, 0x02, 0x00, 0x00, 0x00, 0x01, 0x00, 0x00, 0x00,
  0x10, 0x00, 0x00, 0x00, 0x8a, 0xef, 0xff, 0xff, 0x00, 0x00, 0x00, 0x01,
  0x18, 0x00, 0x00, 0x00, 0x20, 0x00, 0x00, 0x00, 0x3c, 0x00, 0x00, 0x00,
  0x13, 0x00, 0x00, 0x00, 0x00, 0x00, 0x00, 0x09, 0x60, 0x00, 0x00, 0x00,
  0x02, 0x00, 0x00, 0x00, 0xff, 0xff, 0xff, 0xff, 0x18, 0x00, 0x00, 0x00,
  0x6c, 0xef, 0xff, 0xff, 0x08, 0x00, 0x00, 0x00, 0x10, 0x00, 0x00, 0x00,
  0x01, 0x00, 0x00, 0x00, 0x80, 0xff, 0xff, 0xff, 0xff, 0xff, 0xff, 0xff,
  0x01, 0x00, 0x00, 0x00, 0xf0, 0xff, 0x0b, 0x3c, 0x28, 0x00, 0x00, 0x00,
  0x73, 0x65, 0x71, 0x75, 0x65, 0x6e, 0x74, 0x69, 0x61, 0x6c, 0x2f, 0x67,
  0x6c, 0x6f, 0x62, 0x61, 0x6c, 0x5f, 0x61, 0x76, 0x65, 0x72, 0x61, 0x67,
  0x65, 0x5f, 0x70, 0x6f, 0x6f, 0x6c, 0x69, 0x6e, 0x67, 0x32, 0x64, 0x2f,
  0x4d, 0x65, 0x61, 0x6e, 0x00, 0x00, 0x00, 0x00, 0x02, 0x00, 0x00, 0x00,
  0x01, 0x00, 0x00, 0x00, 0x18, 0x00, 0x00, 0x00, 0x12, 0xf0, 0xff, 0xff,
  0x00, 0x00, 0x00, 0x01, 0x18, 0x00, 0x00, 0x00, 0x28, 0x00, 0x00, 0x00,
  0x44, 0x00, 0x00, 0x00, 0x12, 0x00, 0x00, 0x00, 0x00, 0x00, 0x00, 0x09,
  0x60, 0x00, 0x00, 0x00, 0x04, 0x00, 0x00, 0x00, 0xff, 0xff, 0xff, 0xff,
  0x14, 0x00, 0x00, 0x00, 0x0f, 0x00, 0x00, 0x00, 0x18, 0x00, 0x00, 0x00,
  0xfc, 0xef, 0xff, 0xff, 0x08, 0x00, 0x00, 0x00, 0x10, 0x00, 0x00, 0x00,
  0x01, 0x00, 0x00, 0x00, 0x80, 0xff, 0xff, 0xff, 0xff, 0xff, 0xff, 0xff,
  0x01, 0x00, 0x00, 0x00, 0x1a, 0xc4, 0x3d, 0x3d, 0x22, 0x00, 0x00, 0x00,
  0x73, 0x65, 0x71, 0x75, 0x65, 0x6e, 0x74, 0x69, 0x61, 0x6c, 0x2f, 0x6d,
  0x61, 0x78, 0x5f, 0x70, 0x6f, 0x6f, 0x6c, 0x69, 0x6e, 0x67, 0x32, 0x64,
  0x5f, 0x32, 0x2f, 0x4d, 0x61, 0x78, 0x50, 0x6f, 0x6f, 0x6c, 0x00, 0x00,
  0x04, 0x00, 0x00, 0x00, 0x01, 0x00, 0x00, 0x00, 0x14, 0x00, 0x00, 0x00,
  0x0f, 0x00, 0x00, 0x00, 0x18, 0x00, 0x00, 0x00, 0xa2, 0xf0, 0xff, 0xff,
  0x00, 0x00, 0x00, 0x01, 0x18, 0x00, 0x00, 0x00, 0x28, 0x00, 0x00, 0x00,
  0x44, 0x00, 0x00, 0x00, 0x11, 0x00, 0x00, 0x00, 0x00, 0x00, 0x00, 0x09,
  0xb8, 0x00, 0x00, 0x00, 0x04, 0x00, 0x00, 0x00, 0xff, 0xff, 0xff, 0xff,
  0x28, 0x00, 0x00, 0x00, 0x1e, 0x00, 0x00, 0x00, 0x18, 0x00, 0x00, 0x00,
  0x8c, 0xf0, 0xff, 0xff, 0x08, 0x00, 0x00, 0x00, 0x10, 0x00, 0x00, 0x00,
  0x01, 0x00, 0x00, 0x00, 0x80, 0xff, 0xff, 0xff, 0xff, 0xff, 0xff, 0xff,
  0x01, 0x00, 0x00, 0x00, 0x1a, 0xc4, 0x3d, 0x3d, 0x7b, 0x00, 0x00, 0x00,
  0x73, 0x65, 0x71, 0x75, 0x65, 0x6e, 0x74, 0x69, 0x61, 0x6c, 0x2f, 0x63,
  0x6f, 0x6e, 0x76, 0x32, 0x64, 0x5f, 0x32, 0x2f, 0x52, 0x65, 0x6c, 0x75,
  0x3b, 0x73, 0x65, 0x71, 0x75, 0x65, 0x6e, 0x74, 0x69, 0x61, 0x6c, 0x2f,
  0x63, 0x6f, 0x6e, 0x76, 0x32, 0x64, 0x5f, 0x32, 0x2f, 0x42, 0x69, 0x61,
  0x73, 0x41, 0x64, 0x64, 0x3b, 0x73, 0x65, 0x71, 0x75, 0x65, 0x6e, 0x74,
  0x69, 0x61, 0x6c, 0x2f, 0x63, 0x6f, 0x6e, 0x76, 0x32, 0x64, 0x5f, 0x32,
  0x2f, 0x43, 0x6f, 0x6e, 0x76, 0x32, 0x44, 0x3b, 0x73, 0x65, 0x71, 0x75,
  0x65, 0x6e, 0x74, 0x69, 0x61, 0x6c, 0x2f, 0x63, 0x6f, 0x6e, 0x76, 0x32,
  0x64, 0x5f, 0x32, 0x2f, 0x42, 0x69, 0x61, 0x73, 0x41, 0x64, 0x64, 0x2f,
  0x52, 0x65, 0x61, 0x64, 0x56, 0x61, 0x72, 0x69, 0x61, 0x62, 0x6c, 0x65,
  0x4f, 0x70, 0x31, 0x00, 0x04, 0x00, 0x00, 0x00, 0x01, 0x00, 0x00, 0x00,
  0x28, 0x00, 0x00, 0x00, 0x1e, 0x00, 0x00, 0x00, 0x18, 0x00, 0x00, 0x00,
  0x8a, 0xf1, 0xff, 0xff, 0x00, 0x00, 0x00, 0x01, 0x18, 0x00, 0x00, 0x00,
  0x28, 0x00, 0x00, 0x00, 0x44, 0x00, 0x00, 0x00, 0x10, 0x00, 0x00, 0x00,
  0x00, 0x00, 0x00, 0x09, 0x60, 0x00, 0x00, 0x00, 0x04, 0x00, 0x00, 0x00,
  0xff, 0xff, 0xff, 0xff, 0x28, 0x00, 0x00, 0x00, 0x1e, 0x00, 0x00, 0x00,
  0x10, 0x00, 0x00, 0x00, 0x74, 0xf1, 0xff, 0xff, 0x08, 0x00, 0x00, 0x00,
  0x10, 0x00, 0x00, 0x00, 0x01, 0x00, 0x00, 0x00, 0x80, 0xff, 0xff, 0xff,
  0xff, 0xff, 0xff, 0xff, 0x01, 0x00, 0x00, 0x00, 0xa4, 0x74, 0x5d, 0x3c,
  0x22, 0x00, 0x00, 0x00, 0x73, 0x65, 0x71, 0x75, 0x65, 0x6e, 0x74, 0x69,
  0x61, 0x6c, 0x2f, 0x6d, 0x61, 0x78, 0x5f, 0x70, 0x6f, 0x6f, 0x6c, 0x69,
  0x6e, 0x67, 0x32, 0x64, 0x5f, 0x31, 0x2f, 0x4d, 0x61, 0x78, 0x50, 0x6f,
  0x6f, 0x6c, 0x00, 0x00, 0x04, 0x00, 0x00, 0x00, 0x01, 0x00, 0x00, 0x00,
  0x28, 0x00, 0x00, 0x00, 0x1e, 0x00, 0x00, 0x00, 0x10, 0x00, 0x00, 0x00,
  0x1a, 0xf2, 0xff, 0xff, 0x00, 0x00, 0x00, 0x01, 0x18, 0x00, 0x00, 0x00,
  0x28, 0x00, 0x00, 0x00, 0x44, 0x00, 0x00, 0x00, 0x0f, 0x00, 0x00, 0x00,
  0x00, 0x00, 0x00, 0x09, 0xb8, 0x00, 0x00, 0x00, 0x04, 0x00, 0x00, 0x00,
  0xff, 0xff, 0xff, 0xff, 0x50, 0x00, 0x00, 0x00, 0x3c, 0x00, 0x00, 0x00,
  0x10, 0x00, 0x00, 0x00, 0x04, 0xf2, 0xff, 0xff, 0x08, 0x00, 0x00, 0x00,
  0x10, 0x00, 0x00, 0x00, 0x01, 0x00, 0x00, 0x00, 0x80, 0xff, 0xff, 0xff,
  0xff, 0xff, 0xff, 0xff, 0x01, 0x00, 0x00, 0x00, 0xa4, 0x74, 0x5d, 0x3c,
  0x7b, 0x00, 0x00, 0x00, 0x73, 0x65, 0x71, 0x75, 0x65, 0x6e, 0x74, 0x69,
  0x61, 0x6c, 0x2f, 0x63, 0x6f, 0x6e, 0x76, 0x32, 0x64, 0x5f, 0x31, 0x2f,
  0x52, 0x65, 0x6c, 0x75, 0x3b, 0x73, 0x65, 0x71, 0x75, 0x65, 0x6e, 0x74,
  0x69, 0x61, 0x6c, 0x2f, 0x63, 0x6f, 0x6e, 0x76, 0x32, 0x64, 0x5f, 0x31,
  0x2f, 0x42, 0x69, 0x61, 0x73, 0x41, 0x64, 0x64, 0x3b, 0x73, 0x65, 0x71,
  0x75, 0x65, 0x6e, 0x74, 0x69, 0x61, 0x6c, 0x2f, 0x63, 0x6f, 0x6e, 0x76,
  0x32, 0x64, 0x5f, 0x31, 0x2f, 0x43, 0x6f, 0x6e, 0x76, 0x32, 0x44, 0x3b,
  0x73, 0x65, 0x71, 0x75, 0x65, 0x6e, 0x74, 0x69, 0x61, 0x6c, 0x2f, 0x63,
  0x6f, 0x6e, 0x76, 0x32, 0x64, 0x5f, 0x31, 0x2f, 0x42, 0x69, 0x61, 0x73,
  0x41, 0x64, 0x64, 0x2f, 0x52, 0x65, 0x61, 0x64, 0x56, 0x61, 0x72, 0x69,
  0x61, 0x62, 0x6c, 0x65, 0x4f, 0x70, 0x31, 0x00, 0x04, 0x00, 0x00, 0x00,
  0x01, 0x00, 0x00, 0x00, 0x50, 0x00, 0x00, 0x00, 0x3c, 0x00, 0x00, 0x00,
  0x10, 0x00, 0x00, 0x00, 0x02, 0xf3, 0xff, 0xff, 0x00, 0x00, 0x00, 0x01,
  0x18, 0x00, 0x00, 0x00, 0x28, 0x00, 0x00, 0x00, 0x44, 0x00, 0x00, 0x00,
  0x0e, 0x00, 0x00, 0x00, 0x00, 0x00, 0x00, 0x09, 0x60, 0x00, 0x00, 0x00,
  0x04, 0x00, 0x00, 0x00, 0xff, 0xff, 0xff, 0xff, 0x50, 0x00, 0x00, 0x00,
  0x3c, 0x00, 0x00, 0x00, 0x08, 0x00, 0x00, 0x00, 0xec, 0xf2, 0xff, 0xff,
  0x08, 0x00, 0x00, 0x00, 0x10, 0x00, 0x00, 0x00, 0x01, 0x00, 0x00, 0x00,
  0x80, 0xff, 0xff, 0xff, 0xff, 0xff, 0xff, 0xff, 0x01, 0x00, 0x00, 0x00,
  0xff, 0x5a, 0x8c, 0x3b, 0x20, 0x00, 0x00, 0x00, 0x73, 0x65, 0x71, 0x75,
  0x65, 0x6e, 0x74, 0x69, 0x61, 0x6c, 0x2f, 0x6d, 0x61, 0x78, 0x5f, 0x70,
  0x6f, 0x6f, 0x6c, 0x69, 0x6e, 0x67, 0x32, 0x64, 0x2f, 0x4d, 0x61, 0x78,
  0x50, 0x6f, 0x6f, 0x6c, 0x00, 0x00, 0x00, 0x00, 0x04, 0x00, 0x00, 0x00,
  0x01, 0x00, 0x00, 0x00, 0x50, 0x00, 0x00, 0x00, 0x3c, 0x00, 0x00, 0x00,
  0x08, 0x00, 0x00, 0x00, 0x92, 0xf3, 0xff, 0xff, 0x00, 0x00, 0x00, 0x01,
  0x18, 0x00, 0x00, 0x00, 0x28, 0x00, 0x00, 0x00, 0x44, 0x00, 0x00, 0x00,
  0x0d, 0x00, 0x00, 0x00, 0x00, 0x00, 0x00, 0x09, 0xb0, 0x00, 0x00, 0x00,
  0x04, 0x00, 0x00, 0x00, 0xff, 0xff, 0xff, 0xff, 0xa0, 0x00, 0x00, 0x00,
  0x78, 0x00, 0x00, 0x00, 0x08, 0x00, 0x00, 0x00, 0x7c, 0xf3, 0xff, 0xff,
  0x08, 0x00, 0x00, 0x00, 0x10, 0x00, 0x00, 0x00, 0x01, 0x00, 0x00, 0x00,
  0x80, 0xff, 0xff, 0xff, 0xff, 0xff, 0xff, 0xff, 0x01, 0x00, 0x00, 0x00,
  0xff, 0x5a, 0x8c, 0x3b, 0x73, 0x00, 0x00, 0x00, 0x73, 0x65, 0x71, 0x75,
  0x65, 0x6e, 0x74, 0x69, 0x61, 0x6c, 0x2f, 0x63, 0x6f, 0x6e, 0x76, 0x32,
  0x64, 0x2f, 0x52, 0x65, 0x6c, 0x75, 0x3b, 0x73, 0x65, 0x71, 0x75, 0x65,
  0x6e, 0x74, 0x69, 0x61, 0x6c, 0x2f, 0x63, 0x6f, 0x6e, 0x76, 0x32, 0x64,
  0x2f, 0x42, 0x69, 0x61, 0x73, 0x41, 0x64, 0x64, 0x3b, 0x73, 0x65, 0x71,
  0x75, 0x65, 0x6e, 0x74, 0x69, 0x61, 0x6c, 0x2f, 0x63, 0x6f, 0x6e, 0x76,
  0x32, 0x64, 0x2f, 0x43, 0x6f, 0x6e, 0x76, 0x32, 0x44, 0x3b, 0x73, 0x65,
  0x71, 0x75, 0x65, 0x6e, 0x74, 0x69, 0x61, 0x6c, 0x2f, 0x63, 0x6f, 0x6e,
  0x76, 0x32, 0x64, 0x2f, 0x42, 0x69, 0x61, 0x73, 0x41, 0x64, 0x64, 0x2f,
  0x52, 0x65, 0x61, 0x64, 0x56, 0x61, 0x72, 0x69, 0x61, 0x62, 0x6c, 0x65,
  0x4f, 0x70, 0x31, 0x00, 0x04, 0x00, 0x00, 0x00, 0x01, 0x00, 0x00, 0x00,
  0xa0, 0x00, 0x00, 0x00, 0x78, 0x00, 0x00, 0x00, 0x08, 0x00, 0x00, 0x00,
  0xf6, 0xf4, 0xff, 0xff, 0x00, 0x00, 0x00, 0x01, 0x14, 0x00, 0x00, 0x00,
  0x88, 0x00, 0x00, 0x00, 0x0c, 0x00, 0x00, 0x00, 0x00, 0x00, 0x00, 0x09,
  0x9c, 0x00, 0x00, 0x00, 0x44, 0xf4, 0xff, 0xff, 0x08, 0x00, 0x00, 0x00,
  0x4c, 0x00, 0x00, 0x00, 0x08, 0x00, 0x00, 0x00, 0x00, 0x00, 0x00, 0x00,
  0x00, 0x00, 0x00, 0x00, 0x00, 0x00, 0x00, 0x00, 0x00, 0x00, 0x00, 0x00,
  0x00, 0x00, 0x00, 0x00, 0x00, 0x00, 0x00, 0x00, 0x00, 0x00, 0x00, 0x00,
  0x00, 0x00, 0x00, 0x00, 0x00, 0x00, 0x00, 0x00, 0x00, 0x00, 0x00, 0x00,
  0x00, 0x00, 0x00, 0x00, 0x00, 0x00, 0x00, 0x00, 0x00, 0x00, 0x00, 0x00,
  0x00, 0x00, 0x00, 0x00, 0x00, 0x00, 0x00, 0x00, 0x00, 0x00, 0x00, 0x00,
  0x00, 0x00, 0x00, 0x00, 0x08, 0x00, 0x00, 0x00, 0x32, 0x92, 0x65, 0x3b,
  0xa6, 0xd3, 0x67, 0x3b, 0x6a, 0xd8, 0x52, 0x3b, 0x9f, 0x87, 0x9a, 0x3b,
  0x4f, 0x5c, 0x5a, 0x3b, 0x02, 0x12, 0x60, 0x3b, 0x12, 0x2f, 0x53, 0x3b,
  0xe5, 0xa9, 0x14, 0x3b, 0x18, 0x00, 0x00, 0x00, 0x73, 0x65, 0x71, 0x75,
  0x65, 0x6e, 0x74, 0x69, 0x61, 0x6c, 0x2f, 0x63, 0x6f, 0x6e, 0x76, 0x32,
  0x64, 0x2f, 0x43, 0x6f, 0x6e, 0x76, 0x32, 0x44, 0x00, 0x00, 0x00, 0x00,
  0x04, 0x00, 0x00, 0x00, 0x08, 0x00, 0x00, 0x00, 0x03, 0x00, 0x00, 0x00,
  0x03, 0x00, 0x00, 0x00, 0x01, 0x00, 0x00, 0x00, 0xbe, 0xf5, 0xff, 0xff,
  0x00, 0x00, 0x00, 0x01, 0x14, 0x00, 0x00, 0x00, 0x84, 0x00, 0x00, 0x00,
  0x0b, 0x00, 0x00, 0x00, 0x00, 0x00, 0x00, 0x02, 0xf0, 0x00, 0x00, 0x00,
  0x0c, 0xf5, 0xff, 0xff, 0x08, 0x00, 0x00, 0x00, 0x48, 0x00, 0x00, 0x00,
  0x08, 0x00, 0x00, 0x00, 0x00, 0x00, 0x00, 0x00, 0x00, 0x00, 0x00, 0x00,
  0x00, 0x00, 0x00, 0x00, 0x00, 0x00, 0x00, 0x00, 0x00, 0x00, 0x00, 0x00,
  0x00, 0x00, 0x00, 0x00, 0x00, 0x00, 0x00, 0x00, 0x00, 0x00, 0x00, 0x00,
  0x00, 0x00, 0x00, 0x00, 0x00, 0x00, 0x00, 0x00, 0x00, 0x00, 0x00, 0x00,
  0x00, 0x00, 0x00, 0x00, 0x00, 0x00, 0x00, 0x00, 0x00, 0x00, 0x00, 0x00,
  0x00, 0x00, 0x00, 0x00, 0x00, 0x00, 0x00, 0x00, 0x08, 0x00, 0x00, 0x00,
  0xac, 0x78, 0x66, 0x37, 0x63, 0xbc, 0x68, 0x37, 0x17, 0xac, 0x53, 0x37,
  0xc2, 0x22, 0x9b, 0x37, 0x87, 0x37, 0x5b, 0x37, 0xf6, 0xf2, 0x60, 0x37,
  0x16, 0x03, 0x54, 0x37, 0x25, 0x3f, 0x15, 0x37, 0x72, 0x00, 0x00, 0x00,
  0x73, 0x65, 0x71, 0x75, 0x65, 0x6e, 0x74, 0x69, 0x61, 0x6c, 0x2f, 0x63,
  0x6f, 0x6e, 0x76, 0x32, 0x64, 0x2f, 0x52, 0x65, 0x6c, 0x75, 0x3b, 0x73,
  0x65, 0x71, 0x75, 0x65, 0x6e, 0x74, 0x69, 0x61, 0x6c, 0x2f, 0x63, 0x6f,
  0x6e, 0x76, 0x32, 0x64, 0x2f, 0x42, 0x69, 0x61, 0x73, 0x41, 0x64, 0x64,
  0x3b, 0x73, 0x65, 0x71, 0x75, 0x65, 0x6e, 0x74, 0x69, 0x61, 0x6c, 0x2f,
  0x63, 0x6f, 0x6e, 0x76, 0x32, 0x64, 0x2f, 0x43, 0x6f, 0x6e, 0x76, 0x32,
  0x44, 0x3b, 0x73, 0x65, 0x71, 0x75, 0x65, 0x6e, 0x74, 0x69, 0x61, 0x6c,
  0x2f, 0x63, 0x6f, 0x6e, 0x76, 0x32, 0x64, 0x2f, 0x42, 0x69, 0x61, 0x73,
  0x41, 0x64, 0x64, 0x2f, 0x52, 0x65, 0x61, 0x64, 0x56, 0x61, 0x72, 0x69,
  0x61, 0x62, 0x6c, 0x65, 0x4f, 0x70, 0x00, 0x00, 0x01, 0x00, 0x00, 0x00,
  0x08, 0x00, 0x00, 0x00, 0xce, 0xf6, 0xff, 0xff, 0x00, 0x00, 0x00, 0x01,
  0x14, 0x00, 0x00, 0x00, 0xe8, 0x00, 0x00, 0x00, 0x0a, 0x00, 0x00, 0x00,
  0x00, 0x00, 0x00, 0x09, 0xfc, 0x00, 0x00, 0x00, 0x1c, 0xf6, 0xff, 0xff,
  0x08, 0x00, 0x00, 0x00, 0x8c, 0x00, 0x00, 0x00, 0x10, 0x00, 0x00, 0x00,
  0x00, 0x00, 0x00, 0x00, 0x00, 0x00, 0x00, 0x00, 0x00, 0x00, 0x00, 0x00,
  0x00, 0x00, 0x00, 0x00, 0x00, 0x00, 0x00, 0x00, 0x00, 0x00, 0x00, 0x00,
  0x00, 0x00, 0x00, 0x00, 0x00, 0x00, 0x00, 0x00, 0x00, 0x00, 0x00, 0x00,
  0x00, 0x00, 0x00, 0x00, 0x00, 0x00, 0x00, 0x00, 0x00, 0x00, 0x00, 0x00,
  0x00, 0x00, 0x00, 0x00, 0x00, 0x00, 0x00, 0x00, 0x00, 0x00, 0x00, 0x00,
  0x00, 0x00, 0x00, 0x00, 0x00, 0x00, 0x00, 0x00, 0x00, 0x00, 0x00, 0x00,
  0x00, 0x00, 0x00, 0x00, 0x00, 0x00, 0x00, 0x00, 0x00, 0x00, 0x00, 0x00,
  0x00, 0x00, 0x00, 0x00, 0x00, 0x00, 0x00, 0x00, 0x00, 0x00, 0x00, 0x00,
  0x00, 0x00, 0x00, 0x00, 0x00, 0x00, 0x00, 0x00, 0x00, 0x00, 0x00, 0x00,
  0x00, 0x00, 0x00, 0x00, 0x00, 0x00, 0x00, 0x00, 0x00, 0x00, 0x00, 0x00,
  0x00, 0x00, 0x00, 0x00, 0x00, 0x00, 0x00, 0x00, 0x00, 0x00, 0x00, 0x00,
  0x10, 0x00, 0x00, 0x00, 0x33, 0xa4, 0x0f, 0x3c, 0x10, 0xe4, 0xc9, 0x3b,
  0xb3, 0xb8, 0x2e, 0x3c, 0xb9, 0xc8, 0x0d, 0x3c, 0x59, 0xf6, 0xde, 0x3b,
  0x81, 0x2e, 0x01, 0x3c, 0x62, 0x11, 0xfd, 0x3b, 0xe9, 0x9b, 0xaf, 0x3b,
  0x25, 0x6b, 0xe2, 0x3b, 0x4f, 0x24, 0x0e, 0x3c, 0x70, 0x30, 0xf2, 0x3b,
  0x4f, 0xe1, 0xc3, 0x3b, 0xce, 0x9f, 0xe0, 0x3b, 0xde, 0xd0, 0xd6, 0x3b,
  0x82, 0x73, 0xf6, 0x3b, 0x13, 0x8e, 0xf8, 0x3b, 0x1a, 0x00, 0x00, 0x00,
  0x73, 0x65, 0x71, 0x75, 0x65, 0x6e, 0x74, 0x69, 0x61, 0x6c, 0x2f, 0x63,
  0x6f, 0x6e, 0x76, 0x32, 0x64, 0x5f, 0x31, 0x2f, 0x43, 0x6f, 0x6e, 0x76,
  0x32, 0x44, 0x00, 0x00, 0x04, 0x00, 0x00, 0x00, 0x10, 0x00, 0x00, 0x00,
  0x03, 0x00, 0x00, 0x00, 0x03, 0x00, 0x00, 0x00, 0x08, 0x00, 0x00, 0x00,
  0xf6, 0xf7, 0xff, 0xff, 0x00, 0x00, 0x00, 0x01, 0x14, 0x00, 0x00, 0x00,
  0xe4, 0x00, 0x00, 0x00, 0x09, 0x00, 0x00, 0x00, 0x00, 0x00, 0x00, 0x02,
  0x58, 0x01, 0x00, 0x00, 0x44, 0xf7, 0xff, 0xff, 0x08, 0x00, 0x00, 0x00,
  0x88, 0x00, 0x00, 0x00, 0x10, 0x00, 0x00, 0x00, 0x00, 0x00, 0x00, 0x00,
  0x00, 0x00, 0x00, 0x00, 0x00, 0x00, 0x00, 0x00, 0x00, 0x00, 0x00, 0x00,
  0x00, 0x00, 0x00, 0x00, 0x00, 0x00, 0x00, 0x00, 0x00, 0x00, 0x00, 0x00,
  0x00, 0x00, 0x00, 0x00, 0x00, 0x00, 0x00, 0x00, 0x00, 0x00, 0x00, 0x00,
  0x00, 0x00, 0x00, 0x00, 0x00, 0x00, 0x00, 0x00, 0x00, 0x00, 0x00, 0x00,
  0x00, 0x00, 0x00, 0x00, 0x00, 0x00, 0x00, 0x00, 0x00, 0x00, 0x00, 0x00,
  0x00, 0x00, 0x00, 0x00, 0x00, 0x00, 0x00, 0x00, 0x00, 0x00, 0x00, 0x00,
  0x00, 0x00, 0x00, 0x00, 0x00, 0x00, 0x00, 0x00, 0x00, 0x00, 0x00, 0x00,
  0x00, 0x00, 0x00, 0x00, 0x00, 0x00, 0x00, 0x00, 0x00, 0x00, 0x00, 0x00,
  0x00, 0x00, 0x00, 0x00, 0x00, 0x00, 0x00, 0x00, 0x00, 0x00, 0x00, 0x00,
  0x00, 0x00, 0x00, 0x00, 0x00, 0x00, 0x00, 0x00, 0x00, 0x00, 0x00, 0x00,
  0x00, 0x00, 0x00, 0x00, 0x10, 0x00, 0x00, 0x00, 0xb5, 0x81, 0x1d, 0x38,
  0xf8, 0x60, 0xdd, 0x37, 0x3a, 0x96, 0x3f, 0x38, 0x56, 0x78, 0x1b, 0x38,
  0xf3, 0x7b, 0xf4, 0x37, 0xb3, 0xa6, 0x0d, 0x38, 0x76, 0xbf, 0x0a, 0x38,
  0x5e, 0x8f, 0xc0, 0x37, 0x27, 0x46, 0xf8, 0x37, 0xc3, 0xdc, 0x1b, 0x38,
  0x94, 0xc8, 0x04, 0x38, 0xaf, 0xc9, 0xd6, 0x37, 0x79, 0x4e, 0xf6, 0x37,
  0x2a, 0x8d, 0xeb, 0x37, 0xc5, 0x1e, 0x07, 0x38, 0x0c, 0x46, 0x08, 0x38,
  0x7a, 0x00, 0x00, 0x00, 0x73, 0x65, 0x71, 0x75, 0x65, 0x6e, 0x74, 0x69,
  0x61, 0x6c, 0x2f, 0x63, 0x6f, 0x6e, 0x76, 0x32, 0x64, 0x5f, 0x31, 0x2f,
  0x52, 0x65, 0x6c, 0x75, 0x3b, 0x73, 0x65, 0x71, 0x75, 0x65, 0x6e, 0x74,
  0x69, 0x61, 0x6c, 0x2f, 0x63, 0x6f, 0x6e, 0x76, 0x32, 0x64, 0x5f, 0x31,
  0x2f, 0x42, 0x69, 0x61, 0x73, 0x41, 0x64, 0x64, 0x3b, 0x73, 0x65, 0x71,
  0x75, 0x65, 0x6e, 0x74, 0x69, 0x61, 0x6c, 0x2f, 0x63, 0x6f, 0x6e, 0x76,
  0x32, 0x64, 0x5f, 0x31, 0x2f, 0x43, 0x6f, 0x6e, 0x76, 0x32, 0x44, 0x3b,
  0x73, 0x65, 0x71, 0x75, 0x65, 0x6e, 0x74, 0x69, 0x61, 0x6c, 0x2f, 0x63,
  0x6f, 0x6e, 0x76, 0x32, 0x64, 0x5f, 0x31, 0x2f, 0x42, 0x69, 0x61, 0x73,
  0x41, 0x64, 0x64, 0x2f, 0x52, 0x65, 0x61, 0x64, 0x56, 0x61, 0x72, 0x69,
  0x61, 0x62, 0x6c, 0x65, 0x4f, 0x70, 0x00, 0x00, 0x01, 0x00, 0x00, 0x00,
  0x10, 0x00, 0x00, 0x00, 0x6e, 0xf9, 0xff, 0xff, 0x00, 0x00, 0x00, 0x01,
  0x14, 0x00, 0x00, 0x00, 0x48, 0x01, 0x00, 0x00, 0x08, 0x00, 0x00, 0x00,
  0x00, 0x00, 0x00, 0x09, 0x5c, 0x01, 0x00, 0x00, 0xbc, 0xf8, 0xff, 0xff,
  0x08, 0x00, 0x00, 0x00, 0xcc, 0x00, 0x00, 0x00, 0x18, 0x00, 0x00, 0x00,
  0x00, 0x00, 0x00, 0x00, 0x00, 0x00, 0x00, 0x00, 0x00, 0x00, 0x00, 0x00,
  0x00, 0x00, 0x00, 0x00, 0x00, 0x00, 0x00, 0x00, 0x00, 0x00, 0x00, 0x00,
  0x00, 0x00, 0x00, 0x00, 0x00, 0x00, 0x00, 0x00, 0x00, 0x00, 0x00, 0x00,
  0x00, 0x00, 0x00, 0x00, 0x00, 0x00, 0x00, 0x00, 0x00, 0x00, 0x00, 0x00,
  0x00, 0x00, 0x00, 0x00, 0x00, 0x00, 0x00, 0x00, 0x00, 0x00, 0x00, 0x00,
  0x00, 0x00, 0x00, 0x00, 0x00, 0x00, 0x00, 0x00, 0x00, 0x00, 0x00, 0x00,
  0x00, 0x00, 0x00, 0x00, 0x00, 0x00, 0x00, 0x00, 0x00, 0x00, 0x00, 0x00,
  0x00, 0x00, 0x00, 0x00, 0x00, 0x00, 0x00, 0x00, 0x00, 0x00, 0x00, 0x00,
  0x00, 0x00, 0x00, 0x00, 0x00, 0x00, 0x00, 0x00, 0x00, 0x00, 0x00, 0x00,
  0x00, 0x00, 0x00, 0x00, 0x00, 0x00, 0x00, 0x00, 0x00, 0x00, 0x00, 0x00,
  0x00, 0x00, 0x00, 0x00, 0x00, 0x00, 0x00, 0x00, 0x00, 0x00, 0x00, 0x00,
  0x00, 0x00, 0x00, 0x00, 0x00, 0x00, 0x00, 0x00, 0x00, 0x00, 0x00, 0x00,
  0x00, 0x00, 0x00, 0x00, 0x00, 0x00, 0x00, 0x00, 0x00, 0x00, 0x00, 0x00,
  0x00, 0x00, 0x00, 0x00, 0x00, 0x00, 0x00, 0x00, 0x00, 0x00, 0x00, 0x00,
  0x00, 0x00, 0x00, 0x00, 0x00, 0x00, 0x00, 0x00, 0x00, 0x00, 0x00, 0x00,
  0x00, 0x00, 0x00, 0x00, 0x00, 0x00, 0x00, 0x00, 0x00, 0x00, 0x00, 0x00,
  0x00, 0x00, 0x00, 0x00, 0x18, 0x00, 0x00, 0x00, 0x6c, 0xb3, 0x06, 0x3c,
  0x0e, 0x95, 0x54, 0x3c, 0xc4, 0xf3, 0x1b, 0x3c, 0x29, 0x86, 0x0e, 0x3c,
  0xf9, 0xc2, 0x0f, 0x3c, 0x25, 0x01, 0x70, 0x3c, 0x4d, 0x86, 0x4b, 0x3c,
  0x66, 0xea, 0x5a, 0x3c, 0xd8, 0xcd, 0x55, 0x3c, 0x1d, 0x9d, 0x28, 0x3c,
  0xa0, 0x41, 0x3b, 0x3c, 0x06, 0x36, 0x7e, 0x3c, 0x6e, 0x82, 0x43, 0x3c,
  0xdf, 0x46, 0x56, 0x3c, 0x6a, 0x81, 0xeb, 0x3b, 0xd8, 0x09, 0x66, 0x3c,
  0x7c, 0x0e, 0xb5, 0x3b, 0xfc, 0x3b, 0x63, 0x3c, 0xd7, 0x29, 0x68, 0x3c,
  0xf9, 0x1b, 0x1b, 0x3c, 0xba, 0x0e, 0x5a, 0x3c, 0xdc, 0xd6, 0x67, 0x3c,
  0xb6, 0x75, 0x35, 0x3c, 0x29, 0xd4, 0xfc, 0x3b, 0x1a, 0x00, 0x00, 0x00,
  0x73, 0x65, 0x71, 0x75, 0x65, 0x6e, 0x74, 0x69, 0x61, 0x6c, 0x2f, 0x63,
  0x6f, 0x6e, 0x76, 0x32, 0x64, 0x5f, 0x32, 0x2f, 0x43, 0x6f, 0x6e, 0x76,
  0x32, 0x44, 0x00, 0x00, 0x04, 0x00, 0x00, 0x00, 0x18, 0x00, 0x00, 0x00,
  0x03, 0x00, 0x00, 0x00, 0x03, 0x00, 0x00, 0x00, 0x10, 0x00, 0x00, 0x00,
  0xf6, 0xfa, 0xff, 0xff, 0x00, 0x00, 0x00, 0x01, 0x14, 0x00, 0x00, 0x00,
  0x44, 0x01, 0x00, 0x00, 0x07, 0x00, 0x00, 0x00, 0x00, 0x00, 0x00, 0x02,
  0xb8, 0x01, 0x00, 0x00, 0x44, 0xfa, 0xff, 0xff, 0x08, 0x00, 0x00, 0x00,
  0xc8, 0x00, 0x00, 0x00, 0x18, 0x00, 0x00, 0x00, 0x00, 0x00, 0x00, 0x00,
  0x00, 0x00, 0x00, 0x00, 0x00, 0x00, 0x00, 0x00, 0x00, 0x00, 0x00, 0x00,
  0x00, 0x00, 0x00, 0x00, 0x00, 0x00, 0x00, 0x00, 0x00, 0x00, 0x00, 0x00,
  0x00, 0x00, 0x00, 0x00, 0x00, 0x00, 0x00, 0x00, 0x00, 0x00, 0x00, 0x00,
  0x00, 0x00, 0x00, 0x00, 0x00, 0x00, 0x00, 0x00, 0x00, 0x00, 0x00, 0x00,
  0x00, 0x00, 0x00, 0x00, 0x00, 0x00, 0x00, 0x00, 0x00, 0x00, 0x00, 0x00,
  0x00, 0x00, 0x00, 0x00, 0x00, 0x00, 0x00, 0x00, 0x00, 0x00, 0x00, 0x00,
  0x00, 0x00, 0x00, 0x00, 0x00, 0x00, 0x00, 0x00, 0x00, 0x00, 0x00, 0x00,
  0x00, 0x00, 0x00, 0x00, 0x00, 0x00, 0x00, 0x00, 0x00, 0x00, 0x00, 0x00,
  0x00, 0x00, 0x00, 0x00, 0x00, 0x00, 0x00, 0x00, 0x00, 0x00, 0x00, 0x00,
  0x00, 0x00, 0x00, 0x00, 0x00, 0x00, 0x00, 0x00, 0x00, 0x00, 0x00, 0x00,
  0x00, 0x00, 0x00, 0x00, 0x00, 0x00, 0x00, 0x00, 0x00, 0x00, 0x00, 0x00,
  0x00, 0x00, 0x00, 0x00, 0x00, 0x00, 0x00, 0x00, 0x00, 0x00, 0x00, 0x00,
  0x00, 0x00, 0x00, 0x00, 0x00, 0x00, 0x00, 0x00, 0x00, 0x00, 0x00, 0x00,
  0x00, 0x00, 0x00, 0x00, 0x00, 0x00, 0x00, 0x00, 0x00, 0x00, 0x00, 0x00,
  0x00, 0x00, 0x00, 0x00, 0x00, 0x00, 0x00, 0x00, 0x00, 0x00, 0x00, 0x00,
  0x00, 0x00, 0x00, 0x00, 0x00, 0x00, 0x00, 0x00, 0x18, 0x00, 0x00, 0x00,
  0x88, 0x0c, 0xe9, 0x38, 0x89, 0xe5, 0x37, 0x39, 0x7f, 0xe8, 0x06, 0x39,
  0x83, 0x95, 0xf6, 0x38, 0xa3, 0xb9, 0xf8, 0x38, 0x57, 0x9e, 0x4f, 0x39,
  0xac, 0x0f, 0x30, 0x39, 0x19, 0x60, 0x3d, 0x39, 0x1e, 0xf4, 0x38, 0x39,
  0x75, 0xdc, 0x11, 0x39, 0xf9, 0xfc, 0x21, 0x39, 0x77, 0xe8, 0x5b, 0x39,
  0xad, 0x20, 0x29, 0x39, 0xd0, 0x5c, 0x39, 0x39, 0x06, 0xba, 0xcb, 0x38,
  0x4f, 0xff, 0x46, 0x39, 0x00, 0xa0, 0x9c, 0x38, 0x51, 0x92, 0x44, 0x39,
  0xe6, 0xd5, 0x48, 0x39, 0xd2, 0x2d, 0x06, 0x39, 0x11, 0xa2, 0x3c, 0x39,
  0x1e, 0x8e, 0x48, 0x39, 0x4c, 0xf9, 0x1c, 0x39, 0x59, 0xb6, 0xda, 0x38,
  0x7a, 0x00, 0x00, 0x00, 0x73, 0x65, 0x71, 0x75, 0x65, 0x6e, 0x74, 0x69,
  0x61, 0x6c, 0x2f, 0x63, 0x6f, 0x6e, 0x76, 0x32, 0x64, 0x5f, 0x32, 0x2f,
  0x52, 0x65, 0x6c, 0x75, 0x3b, 0x73, 0x65, 0x71, 0x75, 0x65, 0x6e, 0x74,
  0x69, 0x61, 0x6c, 0x2f, 0x63, 0x6f, 0x6e, 0x76, 0x32, 0x64, 0x5f, 0x32,
  0x2f, 0x42, 0x69, 0x61, 0x73, 0x41, 0x64, 0x64, 0x3b, 0x73, 0x65, 0x71,
  0x75, 0x65, 0x6e, 0x74, 0x69, 0x61, 0x6c, 0x2f, 0x63, 0x6f, 0x6e, 0x76,
  0x32, 0x64, 0x5f, 0x32, 0x2f, 0x43, 0x6f, 0x6e, 0x76, 0x32, 0x44, 0x3b,
  0x73, 0x65, 0x71, 0x75, 0x65, 0x6e, 0x74, 0x69, 0x61, 0x6c, 0x2f, 0x63,
  0x6f, 0x6e, 0x76, 0x32, 0x64, 0x5f, 0x32, 0x2f, 0x42, 0x69, 0x61, 0x73,
  0x41, 0x64, 0x64, 0x2f, 0x52, 0x65, 0x61, 0x64, 0x56, 0x61, 0x72, 0x69,
  0x61, 0x62, 0x6c, 0x65, 0x4f, 0x70, 0x00, 0x00, 0x01, 0x00, 0x00, 0x00,
  0x18, 0x00, 0x00, 0x00, 0xce, 0xfc, 0xff, 0xff, 0x00, 0x00, 0x00, 0x01,
  0x14, 0x00, 0x00, 0x00, 0xe4, 0x00, 0x00, 0x00, 0x06, 0x00, 0x00, 0x00,
  0x00, 0x00, 0x00, 0x09, 0xf4, 0x00, 0x00, 0x00, 0x1c, 0xfc, 0xff, 0xff,
  0x08, 0x00, 0x00, 0x00, 0x88, 0x00, 0x00, 0x00, 0x10, 0x00, 0x00, 0x00,
  0x00, 0x00, 0x00, 0x00, 0x00, 0x00, 0x00, 0x00, 0x00, 0x00, 0x00, 0x00,
  0x00, 0x00, 0x00, 0x00, 0x00, 0x00, 0x00, 0x00, 0x00, 0x00, 0x00, 0x00,
  0x00, 0x00, 0x00, 0x00, 0x00, 0x00, 0x00, 0x00, 0x00, 0x00, 0x00, 0x00,
  0x00, 0x00, 0x00, 0x00, 0x00, 0x00, 0x00, 0x00, 0x00, 0x00, 0x00, 0x00,
  0x00, 0x00, 0x00, 0x00, 0x00, 0x00, 0x00, 0x00, 0x00, 0x00, 0x00, 0x00,
  0x00, 0x00, 0x00, 0x00, 0x00, 0x00, 0x00, 0x00, 0x00, 0x00, 0x00, 0x00,
  0x00, 0x00, 0x00, 0x00, 0x00, 0x00, 0x00, 0x00, 0x00, 0x00, 0x00, 0x00,
  0x00, 0x00, 0x00, 0x00, 0x00, 0x00, 0x00, 0x00, 0x00, 0x00, 0x00, 0x00,
  0x00, 0x00, 0x00, 0x00, 0x00, 0x00, 0x00, 0x00, 0x00, 0x00, 0x00, 0x00,
  0x00, 0x00, 0x00, 0x00, 0x00, 0x00, 0x00, 0x00, 0x00, 0x00, 0x00, 0x00,
  0x00, 0x00, 0x00, 0x00, 0x00, 0x00, 0x00, 0x00, 0x10, 0x00, 0x00, 0x00,
  0x53, 0x97, 0x10, 0x3c, 0x88, 0x89, 0x3f, 0x3c, 0xea, 0x04, 0x4e, 0x3b,
  0x13, 0x8d, 0x10, 0x3c, 0x65, 0x9a, 0x32, 0x3b, 0x97, 0xc5, 0x67, 0x3c,
  0xcd, 0x28, 0x48, 0x3b, 0x63, 0x63, 0x47, 0x3c, 0xf0, 0x62, 0x3e, 0x3b,
  0x1f, 0x3e, 0x44, 0x3b, 0x6f, 0x6e, 0x47, 0x3c, 0xa8, 0x7d, 0x33, 0x3c,
  0xf0, 0x16, 0x2a, 0x3c, 0x4e, 0x8e, 0xf4, 0x3b, 0x2a, 0x73, 0x2a, 0x3c,
  0x8c, 0xc9, 0x28, 0x3c, 0x17, 0x00, 0x00, 0x00, 0x73, 0x65, 0x71, 0x75,
  0x65, 0x6e, 0x74, 0x69, 0x61, 0x6c, 0x2f, 0x64, 0x65, 0x6e, 0x73, 0x65,
  0x2f, 0x4d, 0x61, 0x74, 0x4d, 0x75, 0x6c, 0x00, 0x02, 0x00, 0x00, 0x00,
  0x10, 0x00, 0x00, 0x00, 0x18, 0x00, 0x00, 0x00, 0xe6, 0xfd, 0xff, 0xff,
  0x00, 0x00, 0x00, 0x01, 0x14, 0x00, 0x00, 0x00, 0xe8, 0x00, 0x00, 0x00,
  0x05, 0x00, 0x00, 0x00, 0x00, 0x00, 0x00, 0x02, 0x10, 0x01, 0x00, 0x00,
  0x34, 0xfd, 0xff, 0xff, 0x08, 0x00, 0x00, 0x00, 0x8c, 0x00, 0x00, 0x00,
  0x10, 0x00, 0x00, 0x00, 0x00, 0x00, 0x00, 0x00, 0x00, 0x00, 0x00, 0x00,
  0x00, 0x00, 0x00, 0x00, 0x00, 0x00, 0x00, 0x00, 0x00, 0x00, 0x00, 0x00,
  0x00, 0x00, 0x00, 0x00, 0x00, 0x00, 0x00, 0x00, 0x00, 0x00, 0x00, 0x00,
  0x00, 0x00, 0x00, 0x00, 0x00, 0x00, 0x00, 0x00, 0x00, 0x00, 0x00, 0x00,
  0x00, 0x00, 0x00, 0x00, 0x00, 0x00, 0x00, 0x00, 0x00, 0x00, 0x00, 0x00,
  0x00, 0x00, 0x00, 0x00, 0x00, 0x00, 0x00, 0x00, 0x00, 0x00, 0x00, 0x00,
  0x00, 0x00, 0x00, 0x00, 0x00, 0x00, 0x00, 0x00, 0x00, 0x00, 0x00, 0x00,
  0x00, 0x00, 0x00, 0x00, 0x00, 0x00, 0x00, 0x00, 0x00, 0x00, 0x00, 0x00,
  0x00, 0x00, 0x00, 0x00, 0x00, 0x00, 0x00, 0x00, 0x00, 0x00, 0x00, 0x00,
  0x00, 0x00, 0x00, 0x00, 0x00, 0x00, 0x00, 0x00, 0x00, 0x00, 0x00, 0x00,
  0x00, 0x00, 0x00, 0x00, 0x00, 0x00, 0x00, 0x00, 0x00, 0x00, 0x00, 0x00,
  0x00, 0x00, 0x00, 0x00, 0x10, 0x00, 0x00, 0x00, 0x71, 0x25, 0x9e, 0x38,
  0x55, 0x7e, 0xd1, 0x38, 0x46, 0x55, 0xe1, 0x37, 0x3b, 0x1a, 0x9e, 0x38,
  0xc8, 0x58, 0xc3, 0x37, 0x00, 0x80, 0xfd, 0x38, 0x87, 0xec, 0xda, 0x37,
  0x9b, 0x14, 0xda, 0x38, 0x1f, 0x3c, 0xd0, 0x37, 0xd9, 0xa3, 0xd6, 0x37,
  0xb0, 0x20, 0xda, 0x38, 0x59, 0x51, 0xc4, 0x38, 0x01, 0x09, 0xba, 0x38,
  0xc3, 0xbd, 0x85, 0x38, 0xe1, 0x6d, 0xba, 0x38, 0x5c, 0x9c, 0xb8, 0x38,
  0x2e, 0x00, 0x00, 0x00, 0x73, 0x65, 0x71, 0x75, 0x65, 0x6e, 0x74, 0x69,
  0x61, 0x6c, 0x2f, 0x64, 0x65, 0x6e, 0x73, 0x65, 0x2f, 0x52, 0x65, 0x6c,
  0x75, 0x3b, 0x73, 0x65, 0x71, 0x75, 0x65, 0x6e, 0x74, 0x69, 0x61, 0x6c,
  0x2f, 0x64, 0x65, 0x6e, 0x73, 0x65, 0x2f, 0x42, 0x69, 0x61, 0x73, 0x41,
  0x64, 0x64, 0x00, 0x00, 0x01, 0x00, 0x00, 0x00, 0x10, 0x00, 0x00, 0x00,
  0x16, 0xff, 0xff, 0xff, 0x00, 0x00, 0x00, 0x01, 0x14, 0x00, 0x00, 0x00,
  0x40, 0x00, 0x00, 0x00, 0x04, 0x00, 0x00, 0x00, 0x00, 0x00, 0x00, 0x09,
  0x54, 0x00, 0x00, 0x00, 0x64, 0xfe, 0xff, 0xff, 0x08, 0x00, 0x00, 0x00,
  0x1c, 0x00, 0x00, 0x00, 0x02, 0x00, 0x00, 0x00, 0x00, 0x00, 0x00, 0x00,
  0x00, 0x00, 0x00, 0x00, 0x00, 0x00, 0x00, 0x00, 0x00, 0x00, 0x00, 0x00,
  0x00, 0x00, 0x00, 0x00, 0x02, 0x00, 0x00, 0x00, 0xd4, 0xa4, 0x80, 0x3c,
  0xf5, 0x48, 0x3c, 0x3c, 0x19, 0x00, 0x00, 0x00, 0x73, 0x65, 0x71, 0x75,
  0x65, 0x6e, 0x74, 0x69, 0x61, 0x6c, 0x2f, 0x64, 0x65, 0x6e, 0x73, 0x65,
  0x5f, 0x31, 0x2f, 0x4d, 0x61, 0x74, 0x4d, 0x75, 0x6c, 0x00, 0x00, 0x00,
  0x02, 0x00, 0x00, 0x00, 0x02, 0x00, 0x00, 0x00, 0x10, 0x00, 0x00, 0x00,
  0x8e, 0xff, 0xff, 0xff, 0x00, 0x00, 0x00, 0x01, 0x14, 0x00, 0x00, 0x00,
  0x3c, 0x00, 0x00, 0x00, 0x03, 0x00, 0x00, 0x00, 0x00, 0x00, 0x00, 0x02,
  0x50, 0x00, 0x00, 0x00, 0xdc, 0xfe, 0xff, 0xff, 0x08, 0x00, 0x00, 0x00,
  0x18, 0x00, 0x00, 0x00, 0x02, 0x00, 0x00, 0x00, 0x00, 0x00, 0x00, 0x00,
  0x00, 0x00, 0x00, 0x00, 0x00, 0x00, 0x00, 0x00, 0x00, 0x00, 0x00, 0x00,
  0x02, 0x00, 0x00, 0x00, 0x77, 0x67, 0x0c, 0x39, 0x5f, 0x7f, 0xcd, 0x38,
  0x1a, 0x00, 0x00, 0x00, 0x73, 0x65, 0x71, 0x75, 0x65, 0x6e, 0x74, 0x69,
  0x61, 0x6c, 0x2f, 0x64, 0x65, 0x6e, 0x73, 0x65, 0x5f, 0x31, 0x2f, 0x42,
  0x69, 0x61, 0x73, 0x41, 0x64, 0x64, 0x00, 0x00, 0x01, 0x00, 0x00, 0x00,
  0x02, 0x00, 0x00, 0x00, 0x00, 0x00, 0x16, 0x00, 0x1c, 0x00, 0x18, 0x00,
  0x17, 0x00, 0x10, 0x00, 0x0c, 0x00, 0x08, 0x00, 0x00, 0x00, 0x00, 0x00,
  0x00, 0x00, 0x07, 0x00, 0x16, 0x00, 0x00, 0x00, 0x00, 0x00, 0x00, 0x01,
  0x18, 0x00, 0x00, 0x00, 0x18, 0x00, 0x00, 0x00, 0x02, 0x00, 0x00, 0x00,
  0x00, 0x00, 0x00, 0x02, 0x4c, 0x00, 0x00, 0x00, 0x04, 0x00, 0x04, 0x00,
  0x04, 0x00, 0x00, 0x00, 0x3a, 0x00, 0x00, 0x00, 0x73, 0x65, 0x71, 0x75,
  0x65, 0x6e, 0x74, 0x69, 0x61, 0x6c, 0x2f, 0x67, 0x6c, 0x6f, 0x62, 0x61,
  0x6c, 0x5f, 0x61, 0x76, 0x65, 0x72, 0x61, 0x67, 0x65, 0x5f, 0x70, 0x6f,
  0x6f, 0x6c, 0x69, 0x6e, 0x67, 0x32, 0x64, 0x2f, 0x4d, 0x65, 0x61, 0x6e,
  0x2f, 0x72, 0x65, 0x64, 0x75, 0x63, 0x74, 0x69, 0x6f, 0x6e, 0x5f, 0x69,
  0x6e, 0x64, 0x69, 0x63, 0x65, 0x73, 0x00, 0x00, 0x01, 0x00, 0x00, 0x00,
  0x02, 0x00, 0x00, 0x00, 0x00, 0x00, 0x16, 0x00, 0x20, 0x00, 0x1c, 0x00,
  0x1b, 0x00, 0x14, 0x00, 0x10, 0x00, 0x0c, 0x00, 0x00, 0x00, 0x00, 0x00,
  0x08, 0x00, 0x07, 0x00, 0x16, 0x00, 0x00, 0x00, 0x00, 0x00, 0x00, 0x01,
  0x18, 0x00, 0x00, 0x00, 0x34, 0x00, 0x00, 0x00, 0x50, 0x00, 0x00, 0x00,
  0x01, 0x00, 0x00, 0x00, 0x00, 0x00, 0x00, 0x09, 0x64, 0x00, 0x00, 0x00,
  0x04, 0x00, 0x00, 0x00, 0xff, 0xff, 0xff, 0xff, 0xa0, 0x00, 0x00, 0x00,
  0x78, 0x00, 0x00, 0x00, 0x01, 0x00, 0x00, 0x00, 0x0c, 0x00, 0x0c, 0x00,
  0x00, 0x00, 0x00, 0x00, 0x08, 0x00, 0x04, 0x00, 0x0c, 0x00, 0x00, 0x00,
  0x08, 0x00, 0x00, 0x00, 0x10, 0x00, 0x00, 0x00, 0x01, 0x00, 0x00, 0x00,
  0x80, 0xff, 0xff, 0xff, 0xff, 0xff, 0xff, 0xff, 0x01, 0x00, 0x00, 0x00,
  0x81, 0x80, 0x80, 0x3b, 0x19, 0x00, 0x00, 0x00, 0x73, 0x65, 0x72, 0x76,
  0x69, 0x6e, 0x67, 0x5f, 0x64, 0x65, 0x66, 0x61, 0x75, 0x6c, 0x74, 0x5f,
  0x69, 0x6e, 0x70, 0x75, 0x74, 0x5f, 0x31, 0x3a, 0x30, 0x00, 0x00, 0x00,
  0x04, 0x00, 0x00, 0x00, 0x01, 0x00, 0x00, 0x00, 0xa0, 0x00, 0x00, 0x00,
  0x78, 0x00, 0x00, 0x00, 0x01, 0x00, 0x00, 0x00, 0x05, 0x00, 0x00, 0x00,
  0x60, 0x00, 0x00, 0x00, 0x40, 0x00, 0x00, 0x00, 0x2c, 0x00, 0x00, 0x00,
  0x18, 0x00, 0x00, 0x00, 0x04, 0x00, 0x00, 0x00, 0xc0, 0xff, 0xff, 0xff,
  0x19, 0x00, 0x00, 0x00, 0x02, 0x00, 0x00, 0x00, 0x00, 0x00, 0x00, 0x19,
  0xd0, 0xff, 0xff, 0xff, 0x09, 0x00, 0x00, 0x00, 0x04, 0x00, 0x00, 0x00,
  0x00, 0x00, 0x00, 0x09, 0xe0, 0xff, 0xff, 0xff, 0x28, 0x00, 0x00, 0x00,
  0x02, 0x00, 0x00, 0x00, 0x00, 0x00, 0x00, 0x28, 0xf0, 0xff, 0xff, 0xff,
  0x11, 0x00, 0x00, 0x00, 0x02, 0x00, 0x00, 0x00, 0x00, 0x00, 0x00, 0x11,
  0x0c, 0x00, 0x10, 0x00, 0x0f, 0x00, 0x00, 0x00, 0x08, 0x00, 0x04, 0x00,
  0x0c, 0x00, 0x00, 0x00, 0x03, 0x00, 0x00, 0x00, 0x03, 0x00, 0x00, 0x00,
  0x00, 0x00, 0x00, 0x03
};
unsigned int g_model_len = 11896;
